{
  "version": "1.0",
  "truncation": null,
  "padding": null,
  "added_tokens": [
    {
      "id": 0,
      "content": "<pad>",
      "single_word": false,
      "lstrip": false,
      "rstrip": false,
      "normalized": false,
      "special": true
    },
    {
      "id": 1,
      "content": "<bos>",
      "single_word": false,
      "lstrip": false,
      "rstrip": false,
      "normalized": false,
      "special": true
    },
    {
      "id": 2,
      "content": "<eos>",
      "single_word": false,
      "lstrip": false,
      "rstrip": false,
      "normalized": false,
      "special": true
    },
    {
      "id": 3,
      "content": "<unk>",
      "single_word": false,
      "lstrip": false,
      "rstrip": false,
      "normalized": false,
      "special": true
    }
  ],
  "normalizer": {
    "type": "Sequence",
    "normalizers": [
      {
        "type": "NFKC"
      }
    ]
  },
  "pre_tokenizer": {
    "type": "ByteLevel",
    "add_prefix_space": false,
    "trim_offsets": true,
    "use_regex": true
  },
  "post_processor": {
    "type": "TemplateProcessing",
    "single": [
      {
        "SpecialToken": {
          "id": "<bos>",
          "type_id": 0
        }
      },
      {
        "Sequence": {
          "id": "A",
          "type_id": 0
        }
      },
      {
        "SpecialToken": {
          "id": "<eos>",
          "type_id": 0
        }
      }
    ],
    "pair": [
      {
        "Sequence": {
          "id": "A",
          "type_id": 0
        }
      },
      {
        "Sequence": {
          "id": "B",
          "type_id": 1
        }
      }
    ],
    "special_tokens": {
      "<bos>": {
        "id": "<bos>",
        "ids": [
          1
        ],
        "tokens": [
          "<bos>"
        ]
      },
      "<eos>": {
        "id": "<eos>",
        "ids": [
          2
        ],
        "tokens": [
          "<eos>"
        ]
      }
    }
  },
  "decoder": null,
  "model": {
    "type": "BPE",
    "dropout": null,
    "unk_token": "<unk>",
    "continuing_subword_prefix": null,
    "end_of_word_suffix": null,
    "fuse_unk": false,
    "byte_fallback": false,
    "ignore_merges": false,
    "vocab": {
      "<pad>": 0,
      "<bos>": 1,
      "<eos>": 2,
      "<unk>": 3,
      "!": 4,
      "\"": 5,
      "#": 6,
      "$": 7,
      "%": 8,
      "&": 9,
      "'": 10,
      "(": 11,
      ")": 12,
      "*": 13,
      "+": 14,
      ",": 15,
      "-": 16,
      ".": 17,
      "/": 18,
      "0": 19,
      "1": 20,
      "2": 21,
      "3": 22,
      "4": 23,
      "5": 24,
      "6": 25,
      "7": 26,
      "8": 27,
      "9": 28,
      ":": 29,
      ";": 30,
      "<": 31,
      "=": 32,
      ">": 33,
      "?": 34,
      "@": 35,
      "A": 36,
      "B": 37,
      "C": 38,
      "D": 39,
      "E": 40,
      "F": 41,
      "G": 42,
      "H": 43,
      "I": 44,
      "J": 45,
      "K": 46,
      "L": 47,
      "M": 48,
      "N": 49,
      "O": 50,
      "P": 51,
      "Q": 52,
      "R": 53,
      "S": 54,
      "T": 55,
      "U": 56,
      "V": 57,
      "W": 58,
      "X": 59,
      "Y": 60,
      "Z": 61,
      "[": 62,
      "\\": 63,
      "]": 64,
      "^": 65,
      "_": 66,
      "`": 67,
      "a": 68,
      "b": 69,
      "c": 70,
      "d": 71,
      "e": 72,
      "f": 73,
      "g": 74,
      "h": 75,
      "i": 76,
      "j": 77,
      "k": 78,
      "l": 79,
      "m": 80,
      "n": 81,
      "o": 82,
      "p": 83,
      "q": 84,
      "r": 85,
      "s": 86,
      "t": 87,
      "u": 88,
      "v": 89,
      "w": 90,
      "x": 91,
      "y": 92,
      "z": 93,
      "{": 94,
      "|": 95,
      "}": 96,
      "~": 97,
      "¡": 98,
      "¢": 99,
      "£": 100,
      "¤": 101,
      "¥": 102,
      "¦": 103,
      "§": 104,
      "¨": 105,
      "©": 106,
      "ª": 107,
      "«": 108,
      "¬": 109,
      "®": 110,
      "¯": 111,
      "°": 112,
      "±": 113,
      "²": 114,
      "³": 115,
      "´": 116,
      "µ": 117,
      "¶": 118,
      "·": 119,
      "¸": 120,
      "¹": 121,
      "º": 122,
      "»": 123,
      "¼": 124,
      "½": 125,
      "¾": 126,
      "¿": 127,
      "À": 128,
      "Á": 129,
      "Â": 130,
      "Ã": 131,
      "Ä": 132,
      "Å": 133,
      "Æ": 134,
      "Ç": 135,
      "È": 136,
      "É": 137,
      "Ê": 138,
      "Ë": 139,
      "Ì": 140,
      "Í": 141,
      "Î": 142,
      "Ï": 143,
      "Ð": 144,
      "Ñ": 145,
      "Ò": 146,
      "Ó": 147,
      "Ô": 148,
      "Õ": 149,
      "Ö": 150,
      "×": 151,
      "Ø": 152,
      "Ù": 153,
      "Ú": 154,
      "Û": 155,
      "Ü": 156,
      "Ý": 157,
      "Þ": 158,
      "ß": 159,
      "à": 160,
      "á": 161,
      "â": 162,
      "ã": 163,
      "ä": 164,
      "å": 165,
      "æ": 166,
      "ç": 167,
      "è": 168,
      "é": 169,
      "ê": 170,
      "ë": 171,
      "ì": 172,
      "í": 173,
      "î": 174,
      "ï": 175,
      "ð": 176,
      "ñ": 177,
      "ò": 178,
      "ó": 179,
      "ô": 180,
      "õ": 181,
      "ö": 182,
      "÷": 183,
      "ø": 184,
      "ù": 185,
      "ú": 186,
      "û": 187,
      "ü": 188,
      "ý": 189,
      "þ": 190,
      "ÿ": 191,
      "Ā": 192,
      "ā": 193,
      "Ă": 194,
      "ă": 195,
      "Ą": 196,
      "ą": 197,
      "Ć": 198,
      "ć": 199,
      "Ĉ": 200,
      "ĉ": 201,
      "Ċ": 202,
      "ċ": 203,
      "Č": 204,
      "č": 205,
      "Ď": 206,
      "ď": 207,
      "Đ": 208,
      "đ": 209,
      "Ē": 210,
      "ē": 211,
      "Ĕ": 212,
      "ĕ": 213,
      "Ė": 214,
      "ė": 215,
      "Ę": 216,
      "ę": 217,
      "Ě": 218,
      "ě": 219,
      "Ĝ": 220,
      "ĝ": 221,
      "Ğ": 222,
      "ğ": 223,
      "Ġ": 224,
      "ġ": 225,
      "Ģ": 226,
      "ģ": 227,
      "Ĥ": 228,
      "ĥ": 229,
      "Ħ": 230,
      "ħ": 231,
      "Ĩ": 232,
      "ĩ": 233,
      "Ī": 234,
      "ī": 235,
      "Ĭ": 236,
      "ĭ": 237,
      "Į": 238,
      "į": 239,
      "İ": 240,
      "ı": 241,
      "Ĳ": 242,
      "ĳ": 243,
      "Ĵ": 244,
      "ĵ": 245,
      "Ķ": 246,
      "ķ": 247,
      "ĸ": 248,
      "Ĺ": 249,
      "ĺ": 250,
      "Ļ": 251,
      "ļ": 252,
      "Ľ": 253,
      "ľ": 254,
      "Ŀ": 255,
      "ŀ": 256,
      "Ł": 257,
      "ł": 258,
      "Ń": 259,
      "ä¸": 260,
      "ãĢ": 261,
      "çļ": 262,
      "çļĦ": 263,
      "äº": 264,
      "æľ": 265,
      "åı": 266,
      "ãĢĤ": 267,
      "åħ": 268,
      "ä»": 269,
      "å¤": 270,
      "ãĢģ": 271,
      "å®": 272,
      "åĪ": 273,
      "è¿": 274,
      "åľ": 275,
      "ä½": 276,
      "çĶ": 277,
      "åĲ": 278,
      "åĬ": 279,
      "æĺ": 280,
      "ç»": 281,
      "åĽ": 282,
      "æĪ": 283,
      "å¹": 284,
      "æĸ": 285,
      "ä¼": 286,
      "âĢ": 287,
      "æĹ": 288,
      "ä¹": 289,
      "è®": 290,
      "ä¸Ģ": 291,
      "åį": 292,
      "åŃ": 293,
      "è¯": 294,
      "å°": 295,
      "æĺ¯": 296,
      "å·": 297,
      "åľ¨": 298,
      "å¸": 299,
      "æĿ": 300,
      "æľī": 301,
      "éĩ": 302,
      "åĮ": 303,
      "åº": 304,
      "äºº": 305,
      "ä¸Ń": 306,
      "å¼": 307,
      "æī": 308,
      "è¡": 309,
      "éĢ": 310,
      "åĴ": 311,
      "åĨ": 312,
      "èĢ": 313,
      "çĽ": 314,
      "ä¸º": 315,
      "åĩ": 316,
      "ä¸į": 317,
      "åĴĮ": 318,
      "æĬ": 319,
      "æķ": 320,
      "å±": 321,
      "äºĨ": 322,
      "å¯": 323,
      "å¾": 324,
      "ä¸ļ": 325,
      "è´": 326,
      "æł": 327,
      "åĽ½": 328,
      "å¤§": 329,
      "ĥ½": 330,
      "å¹´": 331,
      "ç§": 332,
      "èµ": 333,
      "è§": 334,
      "çİ": 335,
      "éĻ": 336,
      "æ°": 337,
      "çī": 338,
      "æĢ": 339,
      "æĶ": 340,
      "çĶŁ": 341,
      "ä»¥": 342,
      "åŃ¦": 343,
      "åıĳ": 344,
      "çº": 345,
      "âĢľ": 346,
      "âĢĿ": 347,
      "åİ": 348,
      "å¥": 349,
      "çŃ": 350,
      "å½": 351,
      "èĩ": 352,
      "å¿": 353,
      "ä¸Ĭ": 354,
      "çĶ¨": 355,
      "ä¿": 356,
      "æŃ": 357,
      "çĲ": 358,
      "ä¼ļ": 359,
      "éĹ": 360,
      "æ³": 361,
      "åĳ": 362,
      "å·¥": 363,
      "æµ": 364,
      "æİ": 365,
      "éĿ": 366,
      "ä¸ª": 367,
      "èĥ½": 368,
      "¦ģ": 369,
      "æĹ¶": 370,
      "è¡Į": 371,
      "è¦ģ": 372,
      "ä½ľ": 373,
      "æĪĲ": 374,
      "åĵ": 375,
      "æŀ": 376,
      "åħ¬": 377,
      "åŁ": 378,
      "äºİ": 379,
      "é¢": 380,
      "è¿Ļ": 381,
      "æ¯": 382,
      "è¾": 383,
      "æĪĳ": 384,
      "20": 385,
      "æ²": 386,
      "è½": 387,
      "åĪ°": 388,
      "å¯¹": 389,
      "åľ°": 390,
      "å®¶": 391,
      "æĿ¥": 392,
      "äº§": 393,
      "æĭ": 394,
      "åĩº": 395,
      "åı¯": 396,
      "æ±": 397,
      "åī": 398,
      "æĮ": 399,
      "çĲĨ": 400,
      "éĺ": 401,
      "é«": 402,
      "çľ": 403,
      "é«ĺ": 404,
      "çŃī": 405,
      "ç«": 406,
      "å¤ļ": 407,
      "åĪĨ": 408,
      "æĸ°": 409,
      "å¸Ĥ": 410,
      "æ¸": 411,
      "ç®": 412,
      "ä»¬": 413,
      "æĥ": 414,
      "åĬ¨": 415,
      "ä¾": 416,
      "åħ¨": 417,
      "ç½": 418,
      "è¿Ľ": 419,
      "æĸ¹": 420,
      "ç»ı": 421,
      "èĤ": 422,
      "åĮĸ": 423,
      "æ´": 424,
      "ä¸İ": 425,
      "æĦ": 426,
      "å»": 427,
      "éķ": 428,
      "æĹ¥": 429,
      "èĩª": 430,
      "è¿ĩ": 431,
      "åĲĪ": 432,
      "çİ°": 433,
      "éĥ": 434,
      "æ¬": 435,
      "ä½ĵ": 436,
      "åĬĽ": 437,
      "åĵģ": 438,
      "æľº": 439,
      "ç¨": 440,
      "åĲĮ": 441,
      "ä¸ĭ": 442,
      "å®ŀ": 443,
      "æľĪ": 444,
      "å±ķ": 445,
      "é¡": 446,
      "ä¹Ł": 447,
      "æı": 448,
      "åĲİ": 449,
      "å¼Ģ": 450,
      "å»º": 451,
      "ä»ĸ": 452,
      "è®¾": 453,
      "éĥ¨": 454,
      "éģ": 455,
      "èģ": 456,
      "éĿ¢": 457,
      "å®ļ": 458,
      "å¢": 459,
      "æľ¬": 460,
      "çĶµ": 461,
      "æĽ": 462,
      "åıĬ": 463,
      "å¦": 464,
      "æĢ§": 465,
      "ä¸»": 466,
      "åĬ¡": 467,
      "åħ¶": 468,
      "éĽ": 469,
      "æ³ķ": 470,
      "ä¹ĭ": 471,
      "é£": 472,
      "åģ": 473,
      "éķ¿": 474,
      "å°±": 475,
      "åĬł": 476,
      "ç¤": 477,
      "ç¬": 478,
      "èµĦ": 479,
      "èī": 480,
      "éĩį": 481,
      "èĢħ": 482,
      "åº¦": 483,
      "éĢļ": 484,
      "æį": 485,
      "è¶": 486,
      "èĢĮ": 487,
      "æĻ": 488,
      "è·": 489,
      "çĤ": 490,
      "åħ³": 491,
      "åĮº": 492,
      "å¿ĥ": 493,
      "çĻ": 494,
      "åı¸": 495,
      "åľº": 496,
      "æ°´": 497,
      "çŁ": 498,
      "æıĲ": 499,
      "åīį": 500,
      "å¾Ĺ": 501,
      "ç¾": 502,
      "åĨħ": 503,
      "åĪ¶": 504,
      "åĿ": 505,
      "éĩı": 506,
      "å°Ĩ": 507,
      "æīĢ": 508,
      "è°": 509,
      "ç®¡": 510,
      "çł": 511,
      "åħ¬åı¸": 512,
      "æ¶": 513,
      "æĬĢ": 514,
      "çĽ®": 515,
      "åŃĲ": 516,
      "åºĶ": 517,
      "å¥½": 518,
      "çī©": 519,
      "ç³": 520,
      "æĸĩ": 521,
      "ç©": 522,
      "æľĢ": 523,
      "æķĻ": 524,
      "ä½į": 525,
      "äºĭ": 526,
      "è®¡": 527,
      "ä¿Ŀ": 528,
      "éĹ´": 529,
      "å¦Ĥ": 530,
      "ç¨ĭ": 531,
      "èĬ": 532,
      "æľ¯": 533,
      "èĲ": 534,
      "åĳĺ": 535,
      "éļ": 536,
      "å°ı": 537,
      "éĥ½": 538,
      "çĸ": 539,
      "æ¯Ķ": 540,
      "åĢ": 541,
      "çĿ": 542,
      "æľŁ": 543,
      "åħ¥": 544,
      "çĽ¸": 545,
      "å§": 546,
      "ç¬¬": 547,
      "å¤ĸ": 548,
      "å¹¶": 549,
      "å¤©": 550,
      "ç³»": 551,
      "æŁ": 552,
      "ç§į": 553,
      "éħ": 554,
      "ç±": 555,
      "00": 556,
      "éĩĳ": 557,
      "çķ": 558,
      "ç§ĳ": 559,
      "201": 560,
      "æķ°": 561,
      "åĲį": 562,
      "çĹ": 563,
      "è¡¨": 564,
      "ä¿¡": 565,
      "åĽł": 566,
      "éľ": 567,
      "ãĢĭ": 568,
      "ä¼ģ": 569,
      "åħĥ": 570,
      "ç½ĳ": 571,
      "ãĢĬ": 572,
      "å¹³": 573,
      "æĥħ": 574,
      "æĽ´": 575,
      "çĤ¹": 576,
      "æģ": 577,
      "éĶ": 578,
      "å®ī": 579,
      "ä»İ": 580,
      "åıĳå±ķ": 581,
      "ä¸ī": 582,
      "å½ĵ": 583,
      "çĥ": 584,
      "ä¸ŃåĽ½": 585,
      "çĦ": 586,
      "æĪĳä»¬": 587,
      "è½¦": 588,
      "è¯´": 589,
      "ç¾İ": 590,
      "åĪ©": 591,
      "ç¡": 592,
      "ä¸ĵ": 593,
      "æ°ĳ": 594,
      "ä¼ģä¸ļ": 595,
      "æ¬¡": 596,
      "å·¥ä½ľ": 597,
      "éĵ": 598,
      "æ´»": 599,
      "éģĵ": 600,
      "è´¨": 601,
      "åŁº": 602,
      "è¿ĺ": 603,
      "é¡¹": 604,
      "æĶ¿": 605,
      "ç´": 606,
      "æĦı": 607,
      "æĺİ": 608,
      "å¼ı": 609,
      "èĭ": 610,
      "æŃ¤": 611,
      "çī¹": 612,
      "ä½¿": 613,
      "éĻ¢": 614,
      "åķ": 615,
      "æľį": 616,
      "æį®": 617,
      "æĪĸ": 618,
      "åĲĦ": 619,
      "è§Ħ": 620,
      "é¦": 621,
      "ä»£": 622,
      "ç²": 623,
      "ä¸Ģä¸ª": 624,
      "çĿĢ": 625,
      "æĹł": 626,
      "èĪ": 627,
      "ç¥": 628,
      "æłĩ": 629,
      "ä½Ĩ": 630,
      "å¢ŀ": 631,
      "çĦ¶": 632,
      "æ¡": 633,
      "å¸¸": 634,
      "æ·": 635,
      "çłĶ": 636,
      "æº": 637,
      "ä¸ĩ": 638,
      "èµ·": 639,
      "åŀ": 640,
      "é£İ": 641,
      "å¾Ī": 642,
      "åĪĽ": 643,
      "å£": 644,
      "éĩĮ": 645,
      "Ĥ£": 646,
      "èį": 647,
      "èĥ": 648,
      "æŀľ": 649,
      "æŃ£": 650,
      "çĶ±": 651,
      "æĬĢæľ¯": 652,
      "åķĨ": 653,
      "å¼º": 654,
      "éĴ": 655,
      "æĬ¥": 656,
      "æĮģ": 657,
      "ç»Ł": 658,
      "è¢": 659,
      "ä»¶": 660,
      "ç¼": 661,
      "éĢł": 662,
      "åı¯ä»¥": 663,
      "å¤Ħ": 664,
      "è¿Ĳ": 665,
      "çº§": 666,
      "äº¤": 667,
      "å·²": 668,
      "æł¡": 669,
      "éĽĨ": 670,
      "è§£": 671,
      "èĩ³": 672,
      "æµ·": 673,
      "äºĽ": 674,
      "ç»Ħ": 675,
      "æ±Ĥ": 676,
      "è·¯": 677,
      "åħ·": 678,
      "æĶ¶": 679,
      "ç»ĵ": 680,
      "çģ": 681,
      "åįķ": 682,
      "éľĢ": 683,
      "ç«ĭ": 684,
      "äºĮ": 685,
      "è¥": 686,
      "æµģ": 687,
      "ä»»": 688,
      "èĤ²": 689,
      "æĢ»": 690,
      "çº¿": 691,
      "æİ¥": 692,
      "å¯¼": 693,
      "æľįåĬ¡": 694,
      "çľĭ": 695,
      "æīĭ": 696,
      "éĹ¨": 697,
      "è¥¿": 698,
      "éª": 699,
      "åŀĭ": 700,
      "è¾¾": 701,
      "åŁİ": 702,
      "é¢ĺ": 703,
      "èģĶ": 704,
      "ä¼ł": 705,
      "è¢«": 706,
      "ç¤º": 707,
      "æ°Ķ": 708,
      "åıĹ": 709,
      "çľģ": 710,
      "åĲĳ": 711,
      "æł¼": 712,
      "ä¸ľ": 713,
      "çĪ": 714,
      "çĹħ": 715,
      "çĲĥ": 716,
      "æ»": 717,
      "åįĹ": 718,
      "ç®¡çĲĨ": 719,
      "å½±": 720,
      "çİ¯": 721,
      "å¸Ī": 722,
      "é©": 723,
      "åĮ»": 724,
      "æºĲ": 725,
      "åİŁ": 726,
      "ä¾Ľ": 727,
      "å¹¿": 728,
      "èİ": 729,
      "ç¤¾": 730,
      "èº": 731,
      "èĲ¥": 732,
      "è£": 733,
      "è¿Ľè¡Į": 734,
      "æ¸¸": 735,
      "ä½ł": 736,
      "èī²": 737,
      "å¤ĩ": 738,
      "åĸ": 739,
      "åİ»": 740,
      "èĮ": 741,
      "çŁ¥": 742,
      "åįģ": 743,
      "æĦŁ": 744,
      "åħ±": 745,
      "äº§åĵģ": 746,
      "æķĪ": 747,
      "æĸĻ": 748,
      "åĽ¢": 749,
      "ä¸¤": 750,
      "èº«": 751,
      "åģļ": 752,
      "ä»·": 753,
      "æł·": 754,
      "åı°": 755,
      "ç¦": 756,
      "å±±": 757,
      "èĦ": 758,
      "ç±»": 759,
      "åĮĹ": 760,
      "ä¸ĸ": 761,
      "ä¼ĺ": 762,
      "æ²»": 763,
      "æĬķ": 764,
      "è¯ģ": 765,
      "åıĺ": 766,
      "èĢĥ": 767,
      "éĹ®": 768,
      "åĻ": 769,
      "æ£": 770,
      "åħĪ": 771,
      "é¢Ĩ": 772,
      "æİ¨": 773,
      "åĽ½å®¶": 774,
      "èĬĤ": 775,
      "åĩĨ": 776,
      "æ²¡": 777,
      "å²": 778,
      "èµĽ": 779,
      "æĸ½": 780,
      "è®¤": 781,
      "å½¢": 782,
      "è°ĥ": 783,
      "è®©": 784,
      "ä¹¦": 785,
      "æģ¯": 786,
      "æĪ·": 787,
      "æĶ¹": 788,
      "åĬŀ": 789,
      "è´¹": 790,
      "åĻ¨": 791,
      "åı£": 792,
      "æĥ³": 793,
      "10": 794,
      "å·±": 795,
      "æ¯ı": 796,
      "å¸Ĥåľº": 797,
      "ä¹Ī": 798,
      "å¸ĥ": 799,
      "å®Į": 800,
      "éĢī": 801,
      "å°ĳ": 802,
      "åĶ": 803,
      "ç©¶": 804,
      "çĻ½": 805,
      "æ®": 806,
      "éĻħ": 807,
      "çĽ´": 808,
      "åĪ«": 809,
      "éĺŁ": 810,
      "æ¼": 811,
      "åıĸ": 812,
      "å¸¦": 813,
      "æŀĦ": 814,
      "èĩªå·±": 815,
      "çķĮ": 816,
      "è¾ĥ": 817,
      "æĿ¡": 818,
      "åıĤ": 819,
      "æĶ¯": 820,
      "å®¢": 821,
      "ä»Ĭ": 822,
      "è®°": 823,
      "é»": 824,
      "æĶ¾": 825,
      "ç²¾": 826,
      "è¯¥": 827,
      "æĮĩ": 828,
      "åıª": 829,
      "ç©º": 830,
      "åįİ": 831,
      "éĻĲ": 832,
      "åĽĽ": 833,
      "çĥŃ": 834,
      "æķ´": 835,
      "éĺ²": 836,
      "é¡¹çĽ®": 837,
      "è¿ĳ": 838,
      "æ¨": 839,
      "æ³¨": 840,
      "å»ºè®¾": 841,
      "è§Ĥ": 842,
      "è§Ĩ": 843,
      "æ¶Ī": 844,
      "èĢģ": 845,
      "æ·±": 846,
      "çłĶç©¶": 847,
      "æŃ¥": 848,
      "éĤ£": 849,
      "å±Ģ": 850,
      "åĮħ": 851,
      "åħī": 852,
      "çħ": 853,
      "éĿŀ": 854,
      "å¢ĥ": 855,
      "äº¿": 856,
      "éªĮ": 857,
      "ç¡®": 858,
      "å¤į": 859,
      "èĻ": 860,
      "ç»Ļ": 861,
      "æµİ": 862,
      "çİĩ": 863,
      "æĪĺ": 864,
      "çĬ": 865,
      "ç»Ń": 866,
      "ä¹Ĳ": 867,
      "è¯ķ": 868,
      "æĤ": 869,
      "åĽŀ": 870,
      "æīį": 871,
      "è£ħ": 872,
      "éĢŁ": 873,
      "éĢļè¿ĩ": 874,
      "ç«Ļ": 875,
      "å®¹": 876,
      "åĬŁ": 877,
      "å§Ķ": 878,
      "æķĻèĤ²": 879,
      "æĸ¯": 880,
      "ä½İ": 881,
      "æ¢": 882,
      "ä½¿çĶ¨": 883,
      "å·ŀ": 884,
      "è½¬": 885,
      "åı·": 886,
      "çĶŁäº§": 887,
      "æĹ¶éĹ´": 888,
      "æ²¡æľī": 889,
      "å®ĥ": 890,
      "æ¹": 891,
      "éŁ": 892,
      "åĨ³": 893,
      "èģĮ": 894,
      "æĿĥ": 895,
      "åĬ©": 896,
      "é£Ł": 897,
      "æīĵ": 898,
      "åĳĬ": 899,
      "æıĲä¾Ľ": 900,
      "æĬ¤": 901,
      "æĺĵ": 902,
      "é¥": 903,
      "åįĩ": 904,
      "æĿĲ": 905,
      "çĸĹ": 906,
      "èİ·": 907,
      "å¿«": 908,
      "çº¦": 909,
      "æľª": 910,
      "æ¨¡": 911,
      "ç§¯": 912,
      "è±": 913,
      "é¦ĸ": 914,
      "è¶ħ": 915,
      "ç¥ŀ": 916,
      "å¼ķ": 917,
      "19": 918,
      "å·¥ç¨ĭ": 919,
      "æŁ¥": 920,
      "ä¸ĵä¸ļ": 921,
      "çľŁ": 922,
      "ä»ĸä»¬": 923,
      "ç§°": 924,
      "è´£": 925,
      "ç»ıæµİ": 926,
      "åĪĴ": 927,
      "..": 928,
      "è®®": 929,
      "æł¹": 930,
      "æİ§": 931,
      "ç´ł": 932,
      "éĩĩ": 933,
      "æ¸ħ": 934,
      "åŃ¦çĶŁ": 935,
      "åĢ¼": 936,
      "è¡Įä¸ļ": 937,
      "é¢Ħ": 938,
      "åŁŁ": 939,
      "å¤´": 940,
      "éĹ®é¢ĺ": 941,
      "ç¤¾ä¼ļ": 942,
      "åĨľ": 943,
      "æ¡Ī": 944,
      "è®¾è®¡": 945,
      "æĢģ": 946,
      "ä¸»è¦ģ": 947,
      "è¶Ĭ": 948,
      "è§ģ": 949,
      "äºĶ": 950,
      "åĵį": 951,
      "è¯Ĩ": 952,
      "æĺ¾": 953,
      "èĤ¡": 954,
      "ç±³": 955,
      "ç³»ç»Ł": 956,
      "è®º": 957,
      "ä¿¡æģ¯": 958,
      "å¾·": 959,
      "è¯·": 960,
      "èīº": 961,
      "ãĢĤâĢĿ": 962,
      "åİĨ": 963,
      "æŀģ": 964,
      "åĳ¨": 965,
      "å§ĭ": 966,
      "å®īåħ¨": 967,
      "æ±Ł": 968,
      "å£«": 969,
      "åħ»": 970,
      "çı": 971,
      "æĪ¿": 972,
      "åĨµ": 973,
      "æĹħ": 974,
      "èŀ": 975,
      "æİĴ": 976,
      "åĨį": 977,
      "èĮĥ": 978,
      "èĬ±": 979,
      "âĢĿ,": 980,
      "éĶĢ": 981,
      "ä¾ĭ": 982,
      "äº¬": 983,
      "çĪ±": 984,
      "ä¹ł": 985,
      "äº§ä¸ļ": 986,
      "ä¼Ĺ": 987,
      "éľĢè¦ģ": 988,
      "åĽŃ": 989,
      "è¯Ħ": 990,
      "èĩ´": 991,
      "æĻ¯": 992,
      "æĸŃ": 993,
      "åĪĻ": 994,
      "å¡": 995,
      "å°±æĺ¯": 996,
      "é©¬": 997,
      "æĴ": 998,
      "çīĩ": 999,
      "æĸĩåĮĸ": 1000,
      "âĢĶ": 1001,
      "æ´»åĬ¨": 1002,
      "åŃĺ": 1003,
      "æµĭ": 1004,
      "åįı": 1005,
      "åĲĮæĹ¶": 1006,
      "çĶŁæ´»": 1007,
      "ä»¥åıĬ": 1008,
      "ä½ķ": 1009,
      "åģ¥": 1010,
      "éħį": 1011,
      "ä¸Ķ": 1012,
      "åĪĹ": 1013,
      "äººåĳĺ": 1014,
      "ç»´": 1015,
      "ä¸ĸçķĮ": 1016,
      "æ¸©": 1017,
      "è¶³": 1018,
      "æ£Ģ": 1019,
      "éĻį": 1020,
      "åĽ½éĻħ": 1021,
      "çĭ": 1022,
      "æĸ¹éĿ¢": 1023,
      "æĬĬ": 1024,
      "å°Ķ": 1025,
      "12": 1026,
      "åħļ": 1027,
      "éļ¾": 1028,
      "æĪĲä¸º": 1029,
      "äºļ": 1030,
      "åºľ": 1031,
      "ä¸Ńå¿ĥ": 1032,
      "çħ§": 1033,
      "çª": 1034,
      "çĽ¸åħ³": 1035,
      "åºĹ": 1036,
      "çĽĳ": 1037,
      "èĳ": 1038,
      "éĻ¤": 1039,
      "å¥³": 1040,
      "å¤§åŃ¦": 1041,
      "å¿ħ": 1042,
      "éħĴ": 1043,
      "ç»ĩ": 1044,
      "åİĭ": 1045,
      "çİ¯å¢ĥ": 1046,
      "æ¼Ķ": 1047,
      "æĳ": 1048,
      "éĩįè¦ģ": 1049,
      "åŃĹ": 1050,
      "åĬ¿": 1051,
      "å½±åĵį": 1052,
      "èį¯": 1053,
      "æĻº": 1054,
      "åİ¿": 1055,
      "èŀį": 1056,
      "åıį": 1057,
      "éļı": 1058,
      "çīĮ": 1059,
      "ä»½": 1060,
      "èħ": 1061,
      "åıĪ": 1062,
      "200": 1063,
      "å¹²": 1064,
      "åº·": 1065,
      "æĬķèµĦ": 1066,
      "æ®µ": 1067,
      "è¦ģæ±Ĥ": 1068,
      "ç¦»": 1069,
      "åĿĩ": 1070,
      "æ»¡": 1071,
      "è¯Ŀ": 1072,
      "æĿĳ": 1073,
      "çĬ¶": 1074,
      "é¾": 1075,
      "çŁ³": 1076,
      "åħ·æľī": 1077,
      "æħ": 1078,
      "åĩł": 1079,
      "éĢĤ": 1080,
      "å±ŀ": 1081,
      "å¼ł": 1082,
      "å·²ç»ı": 1083,
      "èı": 1084,
      "å¥ĸ": 1085,
      "éŁ³": 1086,
      "ä»ħ": 1087,
      "å¢ŀéķ¿": 1088,
      "æĺŁ": 1089,
      "æĤ£": 1090,
      "å®¤": 1091,
      "è¿Ļä¸ª": 1092,
      "æļ": 1093,
      "ä¾Ŀ": 1094,
      "ç¬¬ä¸Ģ": 1095,
      "åħĭ": 1096,
      "åĽ¾": 1097,
      "åį³": 1098,
      "ç®Ĺ": 1099,
      "åĭ": 1100,
      "æĢĿ": 1101,
      "çĻ¾": 1102,
      "è´Ł": 1103,
      "æĶ¿åºľ": 1104,
      "åĦ": 1105,
      "11": 1106,
      "ç½®": 1107,
      "åı¯èĥ½": 1108,
      "çļĦä¸Ģ": 1109,
      "åŃ¦æł¡": 1110,
      "æ²¹": 1111,
      "åĶ®": 1112,
      "çĽĬ": 1113,
      "çļĦäºº": 1114,
      "èĥ½åĬĽ": 1115,
      "æł¸": 1116,
      "è¿ŀ": 1117,
      "çĽ®åīį": 1118,
      "ä¾¿": 1119,
      "æķ°æį®": 1120,
      "æĥħåĨµ": 1121,
      "ä¹ī": 1122,
      "èĭ±": 1123,
      "æī¿": 1124,
      "çŃĳ": 1125,
      "åŁ¹": 1126,
      "åħ¶ä¸Ń": 1127,
      "åĽłä¸º": 1128,
      "åĳ½": 1129,
      "åįķä½į": 1130,
      "æ¬¾": 1131,
      "å¦Ĥæŀľ": 1132,
      "åŁİå¸Ĥ": 1133,
      "å¤ª": 1134,
      "èĲ½": 1135,
      "éĺ³": 1136,
      "å¥¹": 1137,
      "ä½ľä¸º": 1138,
      "éĤ": 1139,
      "çİĭ": 1140,
      "åĨĽ": 1141,
      "ç»Ĩ": 1142,
      "è®¸": 1143,
      "è®¾å¤ĩ": 1144,
      "è¯Ń": 1145,
      "å±Ĥ": 1146,
      "éĽĨåĽ¢": 1147,
      "ç¢": 1148,
      "ç§ĳæĬĢ": 1149,
      "å¨": 1150,
      "è±¡": 1151,
      "æľĽ": 1152,
      "æĮī": 1153,
      "ä¸¥": 1154,
      "çĮ": 1155,
      "æŀĹ": 1156,
      "åŃ£": 1157,
      "ç»Ħç»ĩ": 1158,
      "åĦ¿": 1159,
      "æľīéĻĲ": 1160,
      "åĪĽæĸ°": 1161,
      "ä»Ģ": 1162,
      "ä½ı": 1163,
      "ä¸¾": 1164,
      "äºĴ": 1165,
      "æĿ¿": 1166,
      "æĭī": 1167,
      "éĿĴ": 1168,
      "çŃĸ": 1169,
      "æĲ": 1170,
      "åħħ": 1171,
      "åĽ´": 1172,
      "åĩı": 1173,
      "âĢĿãĢĤ": 1174,
      "æĺ¯ä¸Ģ": 1175,
      "æ±½": 1176,
      "éĻ©": 1177,
      "30": 1178,
      "å»ºçŃĳ": 1179,
      "å¤§çļĦ": 1180,
      "æ²³": 1181,
      "ä¸įåĲĮ": 1182,
      "è´¨éĩı": 1183,
      "èµ°": 1184,
      "ä¿®": 1185,
      "åľŁ": 1186,
      "åĲĪä½ľ": 1187,
      "åħ¶ä»ĸ": 1188,
      "åĥ": 1189,
      "åĸĦ": 1190,
      "15": 1191,
      "æł¹æį®": 1192,
      "å¾Ģ": 1193,
      "ä»Ģä¹Ī": 1194,
      "å¥½çļĦ": 1195,
      "å¤ĦçĲĨ": 1196,
      "åħ¨åĽ½": 1197,
      "å®ŀçİ°": 1198,
      "äººæ°ĳ": 1199,
      "åı²": 1200,
      "éĵģ": 1201,
      "æłĩåĩĨ": 1202,
      "è¡¨ç¤º": 1203,
      "å¿µ": 1204,
      "åĢĻ": 1205,
      "å¤Ł": 1206,
      "ç»Ī": 1207,
      "åĪĩ": 1208,
      "è¨": 1209,
      "è¿ĻäºĽ": 1210,
      "è¨Ģ": 1211,
      "æĭ¬": 1212,
      "çĸ«": 1213,
      "æĻ®": 1214,
      "äº¿åħĥ": 1215,
      "äºī": 1216,
      "å¤±": 1217,
      "ä»¥ä¸Ĭ": 1218,
      "çº¢": 1219,
      "è´¢": 1220,
      "å¾®": 1221,
      "è´Ń": 1222,
      "åºĶçĶ¨": 1223,
      "èµĦæºĲ": 1224,
      "æī¹": 1225,
      "åħį": 1226,
      "èĪª": 1227,
      "çļ®": 1228,
      "èī¯": 1229,
      "éĥ¨åĪĨ": 1230,
      "åıĮ": 1231,
      "å½ķ": 1232,
      "åĮħæĭ¬": 1233,
      "å¯Į": 1234,
      "å¯¹äºİ": 1235,
      "å¼Ģå§ĭ": 1236,
      "çıŃ": 1237,
      "åĿļ": 1238,
      "åį«": 1239,
      "åı¤": 1240,
      "å®¡": 1241,
      "ä¸ŃçļĦ": 1242,
      "åŃ¦ä¹ł": 1243,
      "çģ«": 1244,
      "å£°": 1245,
      "åĥı": 1246,
      "çĶ»": 1247,
      "æĸ¹å¼ı": 1248,
      "éĥ¨éĹ¨": 1249,
      "å±ħ": 1250,
      "åĪĿ": 1251,
      "æıĲé«ĺ": 1252,
      "åĲ«": 1253,
      "ç¾İåĽ½": 1254,
      "2019": 1255,
      "éĴ¢": 1256,
      "äººçļĦ": 1257,
      "éĵ¶": 1258,
      "åįł": 1259,
      "åıĭ": 1260,
      "è¿ľ": 1261,
      "å¾Īå¤ļ": 1262,
      "),": 1263,
      "æľīéĻĲåħ¬åı¸": 1264,
      "è¯¾": 1265,
      "å¾ĭ": 1266,
      "ç¾¤": 1267,
      "æ¥": 1268,
      "åįļ": 1269,
      "æĿĲæĸĻ": 1270,
      "æ²»çĸĹ": 1271,
      "åįĬ": 1272,
      "çīĪ": 1273,
      "åİĤ": 1274,
      "åľ°åĮº": 1275,
      "ç®Ģ": 1276,
      "ç»ľ": 1277,
      "æĭĽ": 1278,
      "ä¹Łæĺ¯": 1279,
      "å¯Ĩ": 1280,
      "é¢Ŀ": 1281,
      "ç§ĳåŃ¦": 1282,
      "æĹħæ¸¸": 1283,
      "åħ´": 1284,
      "è¾ĵ": 1285,
      "ç¦ı": 1286,
      "è¡Ģ": 1287,
      "2020": 1288,
      "é»Ħ": 1289,
      "å¿Ĺ": 1290,
      "å¹³åı°": 1291,
      "æķħ": 1292,
      "åį°": 1293,
      "æīĢä»¥": 1294,
      "å¼Ģåıĳ": 1295,
      "åł": 1296,
      "çºª": 1297,
      "å·¥ä¸ļ": 1298,
      "è§Ħå®ļ": 1299,
      "é¾Ļ": 1300,
      "åģ¥åº·": 1301,
      "è§ī": 1302,
      "%,": 1303,
      "æ±½è½¦": 1304,
      "éĿŀå¸¸": 1305,
      "çĶ³": 1306,
      "æĭ©": 1307,
      "åŁºç¡": 1308,
      "ä¸ļåĬ¡": 1309,
      "åŁºç¡Ģ": 1310,
      "ä½Ļ": 1311,
      "åŃ©": 1312,
      "è¿ĩç¨ĭ": 1313,
      "er": 1314,
      "è¾¹": 1315,
      "äºĳ": 1316,
      "åĪ°äºĨ": 1317,
      "è¿Ļæł·": 1318,
      "åĮĹäº¬": 1319,
      "å·´": 1320,
      "æĹ©": 1321,
      "ä¸įæĸŃ": 1322,
      "çļĦæĺ¯": 1323,
      ":âĢľ": 1324,
      "è§Ĵ": 1325,
      "æī§": 1326,
      "åºķ": 1327,
      "åĩºçİ°": 1328,
      "æŁĵ": 1329,
      "æ¹ĸ": 1330,
      "å®³": 1331,
      "è®Ń": 1332,
      "ç½ĳç»ľ": 1333,
      "æĤ£èĢħ": 1334,
      "é¢ĨåŁŁ": 1335,
      "é¡»": 1336,
      "èģļ": 1337,
      "è½»": 1338,
      "èİ·å¾Ĺ": 1339,
      "æĪı": 1340,
      "ä¸ĢäºĽ": 1341,
      "ç½Ĺ": 1342,
      "åī¯": 1343,
      "æĭħ": 1344,
      "åĽ½åĨħ": 1345,
      "å¤§å®¶": 1346,
      "ä»ĭ": 1347,
      "å¹´çļĦ": 1348,
      "åº§": 1349,
      "ç«ŀ": 1350,
      "ä½Ĩæĺ¯": 1351,
      "åĽłæŃ¤": 1352,
      "ç»¼": 1353,
      "éĢīæĭ©": 1354,
      "èĥ½å¤Ł": 1355,
      "æĴŃ": 1356,
      "æ¿": 1357,
      "è®²": 1358,
      "éķĩ": 1359,
      "æŃ¢": 1360,
      "%ãĢĤ": 1361,
      "åŃ¦éĻ¢": 1362,
      "ç»§": 1363,
      "å¸Į": 1364,
      "åĲ¸": 1365,
      "æľºæŀĦ": 1366,
      "å®ĮæĪĲ": 1367,
      "èĩªå·±çļĦ": 1368,
      "è¡¥": 1369,
      "18": 1370,
      "ä½ľçĶ¨": 1371,
      "çķ¥": 1372,
      "çĭ¬": 1373,
      "åħ¨çĲĥ": 1374,
      "å®£": 1375,
      "æ±¡": 1376,
      "åīĤ": 1377,
      "50": 1378,
      "åĵģçīĮ": 1379,
      "ä¸ĩåħĥ": 1380,
      "æĭ¥": 1381,
      "ä¸´": 1382,
      "ç¨³": 1383,
      "çªģ": 1384,
      "ä¸įæĺ¯": 1385,
      "è¯»": 1386,
      "åıĳçĶŁ": 1387,
      "çĵ": 1388,
      "æĪĳåĽ½": 1389,
      "äºĨè§£": 1390,
      "é¦Ļ": 1391,
      "å®Ŀ": 1392,
      "æ¬¢": 1393,
      "åĨħå®¹": 1394,
      "å°½": 1395,
      "åī§": 1396,
      "Â·": 1397,
      "ä¸Ģå®ļ": 1398,
      "é²": 1399,
      "çİ°åľ¨": 1400,
      "æ¿Ģ": 1401,
      "çľ¼": 1402,
      "çł´": 1403,
      "æĵ": 1404,
      "ç¼ĸ": 1405,
      "éĢģ": 1406,
      "æ¸¯": 1407,
      "æ¶Īè´¹": 1408,
      "åį´": 1409,
      "åıĳçİ°": 1410,
      "æĹ¶åĢĻ": 1411,
      "åĤ": 1412,
      "æ½": 1413,
      "åı¦": 1414,
      "ç»ıèĲ¥": 1415,
      "æĿİ": 1416,
      "è®¡åĪĴ": 1417,
      "çĶ±äºİ": 1418,
      "çº³": 1419,
      "åĨĻ": 1420,
      "ľé£İ": 1421,
      "çĻ½çĻ": 1422,
      ",âĢľ": 1423,
      "åĳ³": 1424,
      "æīĢæľī": 1425,
      "ç»¿": 1426,
      "ä¹¡": 1427,
      "åħŃ": 1428,
      "çķĻ": 1429,
      "èĪ¬": 1430,
      "çĻ½çĻľé£İ": 1431,
      "æľīåħ³": 1432,
      "ç«¯": 1433,
      "å¢ŀåĬł": 1434,
      "éľĢæ±Ĥ": 1435,
      "å¼Ģå±ķ": 1436,
      "å®ĺ": 1437,
      "äº«": 1438,
      "åĸľ": 1439,
      "100": 1440,
      "16": 1441,
      "è®¤ä¸º": 1442,
      "æıĲåįĩ": 1443,
      "åį¡": 1444,
      "çĶ¨æĪ·": 1445,
      "æ¬§": 1446,
      "ç»¼åĲĪ": 1447,
      "éļľ": 1448,
      "ä¸ĢæŃ¥": 1449,
      "éĿ©": 1450,
      "åįĥ": 1451,
      "è´§": 1452,
      "åĬ³": 1453,
      "å¸®": 1454,
      "ç¬¬äºĮ": 1455,
      "ä¸ªäºº": 1456,
      "æĽ¾": 1457,
      "éĺ¿": 1458,
      "èĭı": 1459,
      "æĺ¥": 1460,
      "æ¤": 1461,
      "éħĴåºĹ": 1462,
      "ç»©": 1463,
      "æĸ¹æ³ķ": 1464,
      "ä¿ĥ": 1465,
      "åĬŁèĥ½": 1466,
      "ä¸Ĭæµ·": 1467,
      "in": 1468,
      "æĻºèĥ½": 1469,
      "æŀĲ": 1470,
      "æ¦": 1471,
      "å®¢æĪ·": 1472,
      "ç¥¨": 1473,
      "çĨ": 1474,
      "åŃ©åŃĲ": 1475,
      "ç¨İ": 1476,
      "äº²": 1477,
      "èīºæľ¯": 1478,
      "æ´²": 1479,
      "æĶ¯æĮģ": 1480,
      "æ°´å¹³": 1481,
      "æĪĸèĢħ": 1482,
      "è¾¾åĪ°": 1483,
      "æİ§åĪ¶": 1484,
      "14": 1485,
      "ç§»": 1486,
      "çĶµåŃĲ": 1487,
      "åĨł": 1488,
      "æŁĲ": 1489,
      "è´Łè´£": 1490,
      "è½½": 1491,
      "åĮ»éĻ¢": 1492,
      "on": 1493,
      "ç»ĵæŀĦ": 1494,
      "é¢ĳ": 1495,
      "æĶ¿çŃĸ": 1496,
      "é¦Ĩ": 1497,
      "ç§¯æŀģ": 1498,
      "ä¸°": 1499,
      "å²ģ": 1500,
      "éĥ½æĺ¯": 1501,
      "çĹĩ": 1502,
      "ä»Ĭå¹´": 1503,
      "ç²¾ç¥ŀ": 1504,
      "an": 1505,
      "å¾ħ": 1506,
      "åıĳå¸ĥ": 1507,
      "æİĪ": 1508,
      "æľªæĿ¥": 1509,
      "åĩĢ": 1510,
      "é£ŀ": 1511,
      "æĭ¥æľī": 1512,
      "æį¢": 1513,
      "æľ¨": 1514,
      "2018": 1515,
      "ä¿ĿæĬ¤": 1516,
      "ä¸įèĥ½": 1517,
      "ä»£è¡¨": 1518,
      "æĤ¨": 1519,
      "åħ°": 1520,
      "13": 1521,
      "è¶ħè¿ĩ": 1522,
      "çŁŃ": 1523,
      "åĪ¶éĢł": 1524,
      "åĪ©çĶ¨": 1525,
      "ä¹ĭä¸Ģ": 1526,
      "æķĻåŃ¦": 1527,
      "æ³¢": 1528,
      "è¿Ļç§į": 1529,
      "ç¿": 1530,
      "åºı": 1531,
      "éĶĢåĶ®": 1532,
      "åĲĥ": 1533,
      "è¿Ļä¸Ģ": 1534,
      "å·®": 1535,
      "æĬĹ": 1536,
      "éĩĩçĶ¨": 1537,
      "å¾ģ": 1538,
      "ä½Ľ": 1539,
      "å®ŀæĸ½": 1540,
      "é»ĳ": 1541,
      ")ãĢĤ": 1542,
      "èĻ½": 1543,
      "å¼Ĥ": 1544,
      "å°¼": 1545,
      "åĩ»": 1546,
      "åİĨåı²": 1547,
      "å±Ĭ": 1548,
      "ä¸ºäºĨ": 1549,
      "èģĶç½ĳ": 1550,
      "ä»·æł¼": 1551,
      "èĴ": 1552,
      "è¿ĺæĺ¯": 1553,
      "äº¤éĢļ": 1554,
      "æ¯Ĵ": 1555,
      "ä¼¤": 1556,
      "ç£": 1557,
      "åıĤåĬł": 1558,
      "å¯Ł": 1559,
      "è´£ä»»": 1560,
      "åĪĨæŀĲ": 1561,
      "çĩ": 1562,
      "æĦ¿": 1563,
      "ç§Ģ": 1564,
      "èĩªçĦ¶": 1565,
      "ç´¢": 1566,
      "é¼": 1567,
      "æłĳ": 1568,
      "æĶ¶åħ¥": 1569,
      "ä»į": 1570,
      "å½¢æĪĲ": 1571,
      "æįŁ": 1572,
      "æ¯Ķè¾ĥ": 1573,
      "æĺ¾ç¤º": 1574,
      "èĳĹ": 1575,
      "éħ¸": 1576,
      "åĲĦç§į": 1577,
      "ä¹°": 1578,
      "ä»¤": 1579,
      "åĲ¬": 1580,
      "ä¸ĢèĪ¬": 1581,
      "åŁºæľ¬": 1582,
      "å¿ħé¡»": 1583,
      "è§£åĨ³": 1584,
      "æĽ´å¤ļ": 1585,
      "äºĨä¸Ģ": 1586,
      "è¿Ľåħ¥": 1587,
      "25": 1588,
      "å½©": 1589,
      "ç´§": 1590,
      "17": 1591,
      "æĮģç»Ń": 1592,
      "ç«ł": 1593,
      "ä¼łç»Ł": 1594,
      "æ¥¼": 1595,
      "æľīæķĪ": 1596,
      "èĮ¶": 1597,
      "å¸ĮæľĽ": 1598,
      "è½¯": 1599,
      "æĿ¡ä»¶": 1600,
      "è½®": 1601,
      "é¥®": 1602,
      "--": 1603,
      "éļıçĿĢ": 1604,
      "æĹı": 1605,
      "äº§çĶŁ": 1606,
      "å¥ĩ": 1607,
      "çŁ¥è¯Ĩ": 1608,
      "æ¸¸æĪı": 1609,
      "ç½ĳç«Ļ": 1610,
      "ä»ĺ": 1611,
      "è¿Ľä¸ĢæŃ¥": 1612,
      "æĬ¥åĳĬ": 1613,
      "é¸": 1614,
      "åħ³ç³»": 1615,
      "åºŃ": 1616,
      "æī¾": 1617,
      "éĩįçĤ¹": 1618,
      "åª": 1619,
      "ä¸ĬçļĦ": 1620,
      "åĲ¦": 1621,
      "äºĪ": 1622,
      "åħ«": 1623,
      "è¿°": 1624,
      "åģĩ": 1625,
      "åħ¸": 1626,
      "ç¯": 1627,
      "åıĤä¸İ": 1628,
      "è¿ĺæľī": 1629,
      "æĸ°çļĦ": 1630,
      "ç»į": 1631,
      "éĩĳèŀį": 1632,
      "åŃĺåľ¨": 1633,
      "çī¹åĪ«": 1634,
      "âĢĶâĢĶ": 1635,
      "å¥Ĺ": 1636,
      "åĽº": 1637,
      "äººæīį": 1638,
      "èĨ": 1639,
      "æ±ī": 1640,
      "è§ĦåĪĴ": 1641,
      "æŃ¦": 1642,
      "çĶ·": 1643,
      "æĪĲåĬŁ": 1644,
      "çĻ»": 1645,
      "é£Łåĵģ": 1646,
      "æ¯į": 1647,
      "ä¸įä»ħ": 1648,
      "çīĽ": 1649,
      "åĪ»": 1650,
      "çĿ£": 1651,
      "è®°èĢħ": 1652,
      "èŃ": 1653,
      "åĽ°": 1654,
      "å©": 1655,
      "çĸ¾": 1656,
      "å»ºç«ĭ": 1657,
      "æķĻå¸Ī": 1658,
      "å³": 1659,
      "æ¶²": 1660,
      "çĸ«æĥħ": 1661,
      "æ¯ĶèµĽ": 1662,
      "èĥ½æºĲ": 1663,
      "æŃĮ": 1664,
      "è§Ħæ¨¡": 1665,
      "è´µ": 1666,
      "èĥľ": 1667,
      "éģĩ": 1668,
      "çĶ³è¯·": 1669,
      "è¿Ļæĺ¯": 1670,
      "åĨ·": 1671,
      "æ¯ķ": 1672,
      "æĿ¥çļĦ": 1673,
      "ä¸ĵå®¶": 1674,
      "çĶ¨äºİ": 1675,
      "èĹ": 1676,
      "ç³»åĪĹ": 1677,
      "å¹ħ": 1678,
      "ä¹ĭåĲİ": 1679,
      "ä¼ļè®®": 1680,
      "åģľ": 1681,
      "æİ¢": 1682,
      "åĲĮæ¯Ķ": 1683,
      "æīĺ": 1684,
      "éĢĲ": 1685,
      "åľ°æĸ¹": 1686,
      "èŃ¦": 1687,
      "åºĨ": 1688,
      "è®¯": 1689,
      "èĢĮä¸Ķ": 1690,
      "åħ³äºİ": 1691,
      "24": 1692,
      "è¯ī": 1693,
      "æĻļ": 1694,
      "åĬłå¼º": 1695,
      "æ¶¦": 1696,
      "ar": 1697,
      "çŁ¥éģĵ": 1698,
      "çĽ®æłĩ": 1699,
      "åªĴ": 1700,
      "ä½ĵç³»": 1701,
      "éĹ»": 1702,
      "äººä»¬": 1703,
      "å¦Ĥä½ķ": 1704,
      "ä¸ĢçĽ´": 1705,
      "ç¼º": 1706,
      "ä¹ĭéĹ´": 1707,
      "åħ¨éĿ¢": 1708,
      "è¿İ": 1709,
      "ä¸ĥ": 1710,
      "ä»·åĢ¼": 1711,
      "å®ģ": 1712,
      "å®ŀéĻħ": 1713,
      "æĸ¹æ¡Ī": 1714,
      "èĻ½çĦ¶": 1715,
      "....": 1716,
      "ç»§ç»Ń": 1717,
      "åį±": 1718,
      "ä»ĭç»į": 1719,
      "000": 1720,
      "ä¹Ŀ": 1721,
      "çĮ®": 1722,
      "çĶŁæĢģ": 1723,
      "è°¢": 1724,
      "éĴŁ": 1725,
      "èį£": 1726,
      "ç»ĵåĲĪ": 1727,
      "æĮīçħ§": 1728,
      "æĮ¥": 1729,
      "çĽĸ": 1730,
      "èģĮä¸ļ": 1731,
      "ç»Ŀ": 1732,
      "åĮ»çĸĹ": 1733,
      "çļĦåıĳå±ķ": 1734,
      "¤Ĳ": 1735,
      "å¸®åĬ©": 1736,
      "å°Ħ": 1737,
      "ä»¥ä¸ĭ": 1738,
      "éĺ¶": 1739,
      "æĪĲç«ĭ": 1740,
      "æŃ»": 1741,
      "å®Ī": 1742,
      "æ¢°": 1743,
      "å¥¥": 1744,
      "å§Ķåĳĺ": 1745,
      "åĿĹ": 1746,
      "èĦĳ": 1747,
      "é¢Ĩå¯¼": 1748,
      "ç¬¬ä¸ī": 1749,
      "æıĲåĩº": 1750,
      "è¿½": 1751,
      "åĪĨåĪ«": 1752,
      "å·¦": 1753,
      "éĨ": 1754,
      "çŃ¾": 1755,
      "çĽ´æİ¥": 1756,
      "åĨĮ": 1757,
      "æ¡¥": 1758,
      "éĤ£ä¹Ī": 1759,
      "å¯¼èĩ´": 1760,
      "åĤ¨": 1761,
      "ä¼¼": 1762,
      "æĿ¥è¯´": 1763,
      "éĢłæĪĲ": 1764,
      "éĵ¶è¡Į": 1765,
      "çĶļ": 1766,
      "æ¨¡å¼ı": 1767,
      "åĵª": 1768,
      "ä½ľåĵģ": 1769,
      "éº": 1770,
      "å¤«": 1771,
      "æĽ²": 1772,
      "éĻĦ": 1773,
      "åĲ¯": 1774,
      "éĴĪ": 1775,
      "èĢĲ": 1776,
      "å¨ģ": 1777,
      "åı³": 1778,
      "è¡Įä¸º": 1779,
      "æľŁéĹ´": 1780,
      "ä¹ħ": 1781,
      "æ¤į": 1782,
      "éĢı": 1783,
      "ä¿ĥè¿Ľ": 1784,
      "åıĸå¾Ĺ": 1785,
      "æ³¨æĦı": 1786,
      "æĪĳä»¬çļĦ": 1787,
      "èĵ": 1788,
      "ç»ĥ": 1789,
      "å·Ŀ": 1790,
      "çİ°ä»£": 1791,
      "ä»¥æĿ¥": 1792,
      "çłĶåıĳ": 1793,
      "ä¸Ģèµ·": 1794,
      "ä»ª": 1795,
      "è®¡ç®Ĺ": 1796,
      "æİ¨åĬ¨": 1797,
      "åħ±åĲĮ": 1798,
      "å»¶": 1799,
      "åºŁ": 1800,
      "æ°§": 1801,
      "éĽ¨": 1802,
      "åįĪ": 1803,
      "60": 1804,
      "ä¿ĿæĮģ": 1805,
      "æĢ¥": 1806,
      "éĻĪ": 1807,
      "é¤Ĳ": 1808,
      "å¹´æĿ¥": 1809,
      "ä¸įä¼ļ": 1810,
      "æİª": 1811,
      "çģµ": 1812,
      "æİ¨è¿Ľ": 1813,
      "ä»ĸçļĦ": 1814,
      "ä½³": 1815,
      "æĹ¶ä»£": 1816,
      "èĮĥåĽ´": 1817,
      "åºĵ": 1818,
      "è¡ĮæĶ¿": 1819,
      "èĭ¥": 1820,
      "è®¢": 1821,
      "è¯¢": 1822,
      "æī©": 1823,
      "2017": 1824,
      "ä¿Ŀéļľ": 1825,
      "æĿĤ": 1826,
      "é¥°": 1827,
      "è®¸å¤ļ": 1828,
      "ä»»ä½ķ": 1829,
      "çļĦå¤§": 1830,
      "åĬª": 1831,
      "åİħ": 1832,
      "ä¸½": 1833,
      "è¿ĲåĬ¨": 1834,
      ")ãĢģ": 1835,
      "åĳ¢": 1836,
      "éĢĢ": 1837,
      "æ²Ļ": 1838,
      "åºĶè¯¥": 1839,
      "æĭį": 1840,
      "è¡Ĺ": 1841,
      "éĿ¢ç§¯": 1842,
      "é½": 1843,
      "æ°¸": 1844,
      "ä¼ĺåĬ¿": 1845,
      "ç«¥": 1846,
      "å·¨": 1847,
      "æĪĺçķ¥": 1848,
      "çĳ": 1849,
      "èįī": 1850,
      "èµĦéĩĳ": 1851,
      "çłģ": 1852,
      "21": 1853,
      "éĿł": 1854,
      "è·Ł": 1855,
      "è´¸": 1856,
      "40": 1857,
      "çĶµå½±": 1858,
      "åĽ¢éĺŁ": 1859,
      "æĶ¹éĿ©": 1860,
      "æķĪæŀľ": 1861,
      "è¾Ĩ": 1862,
      "æī§è¡Į": 1863,
      "ä¸ĭéĻį": 1864,
      "çŁ¿": 1865,
      "çļĦæĹ¶åĢĻ": 1866,
      "åĬ±": 1867,
      "èĦ±": 1868,
      "åŁ¹åħ»": 1869,
      "é¡º": 1870,
      "22": 1871,
      "en": 1872,
      "æĵį": 1873,
      "æĪĲæľ¬": 1874,
      "åŁ¹è®Ń": 1875,
      "è¿Ŀ": 1876,
      "æĳĦ": 1877,
      "éĶĻ": 1878,
      "ç©ºéĹ´": 1879,
      "è¯Ĭ": 1880,
      "çĤİ": 1881,
      "å¸Ń": 1882,
      "è°Ī": 1883,
      "æĭ¿": 1884,
      "è®¿": 1885,
      "åĩıå°ĳ": 1886,
      "å¾ĹåĪ°": 1887,
      "80": 1888,
      "éĽ¶": 1889,
      "åŁºéĩĳ": 1890,
      "èĥĮ": 1891,
      "åĬªåĬĽ": 1892,
      "åĨľä¸ļ": 1893,
      "ç¨³å®ļ": 1894,
      "è®¾æĸ½": 1895,
      "äºĴèģĶç½ĳ": 1896,
      "ç«ŀäºī": 1897,
      "éŃ": 1898,
      "åį«çĶŁ": 1899,
      "éĵ¾": 1900,
      "æķĳ": 1901,
      "èıľ": 1902,
      "äºĭä¸ļ": 1903,
      "å¤ı": 1904,
      "åİŁåĽł": 1905,
      "æ¾": 1906,
      "å®ŀéªĮ": 1907,
      "èģĺ": 1908,
      "åĢŁ": 1909,
      "ç¬¦": 1910,
      "æĶ»": 1911,
      "çĶŁçī©": 1912,
      "æ±ł": 1913,
      "ç´¯": 1914,
      "ç²ī": 1915,
      "åºĬ": 1916,
      "æĸ½å·¥": 1917,
      "äº¤æĺĵ": 1918,
      "åıªæľī": 1919,
      "ç»ıéªĮ": 1920,
      "è¡¨çİ°": 1921,
      "çĶļèĩ³": 1922,
      "æ³ķå¾ĭ": 1923,
      "æ³Ľ": 1924,
      "å²Ľ": 1925,
      "å¡ĳ": 1926,
      "çİ©": 1927,
      "åĿļæĮģ": 1928,
      "æ´Ĺ": 1929,
      "ç»ĵæŀľ": 1930,
      "æĽ´åĬł": 1931,
      "æĿ¾": 1932,
      "æĪª": 1933,
      "ç»ıè¿ĩ": 1934,
      "åı¶": 1935,
      "è´«": 1936,
      "éĶ®": 1937,
      "åĨ³å®ļ": 1938,
      "åĨ²": 1939,
      "ç¾İåħĥ": 1940,
      "èģĶåĲĪ": 1941,
      "åĺ": 1942,
      "æĢ§èĥ½": 1943,
      "åıĳå±ķçļĦ": 1944,
      "åĪļ": 1945,
      "æľĭ": 1946,
      "éŁ³ä¹Ĳ": 1947,
      "æľĢåĲİ": 1948,
      "or": 1949,
      "æľºæ¢°": 1950,
      "éģ¿": 1951,
      "ãĢĭ,": 1952,
      "çĸ¾çĹħ": 1953,
      "çİ°åľº": 1954,
      "å¸ģ": 1955,
      "åĪ¶åº¦": 1956,
      "éľ²": 1957,
      "è¿ĩç¨ĭä¸Ń": 1958,
      "åĳĺå·¥": 1959,
      "äº¤æµģ": 1960,
      "ä½įäºİ": 1961,
      "æĢİ": 1962,
      "èĢĥè¯ķ": 1963,
      "èĹı": 1964,
      "ä¹İ": 1965,
      "ä¸¤ä¸ª": 1966,
      "ä¸°å¯Į": 1967,
      "åĬłå·¥": 1968,
      "ç§Ł": 1969,
      "æīĭæľº": 1970,
      "çĶ°": 1971,
      "æķ£": 1972,
      "é£İéĻ©": 1973,
      "åıĹåĪ°": 1974,
      "æĢ§çļĦ": 1975,
      "åĪ¤": 1976,
      "ä¸Ģæ¬¡": 1977,
      "åĬ³åĬ¨": 1978,
      "è·Ŀ": 1979,
      "23": 1980,
      "ãĢĤâĢľ": 1981,
      "å°ļ": 1982,
      "éĴ±": 1983,
      "è¯ļ": 1984,
      "çĨŁ": 1985,
      "æ¶ī": 1986,
      "é¡¾": 1987,
      "ç¬Ķ": 1988,
      "é¡¶": 1989,
      "å¤®": 1990,
      "æł¸å¿ĥ": 1991,
      "èĢģå¸Ī": 1992,
      "al": 1993,
      "åĮºåŁŁ": 1994,
      "éģĹ": 1995,
      "èª": 1996,
      "èĽ": 1997,
      "æĹ¥æľ¬": 1998,
      "å²Ĺ": 1999,
      "çĽĺ": 2000,
      "ä½ĵèĤ²": 2001,
      "ä¸¥éĩį": 2002,
      "ä¿Ŀè¯ģ": 2003,
      "æĿ¥èĩª": 2004,
      "çĽŁ": 2005,
      "ä¸Ģç§į": 2006,
      "è¿ĲèĲ¥": 2007,
      "èĸ": 2008,
      "çļĦé«ĺ": 2009,
      "çĽĽ": 2010,
      "åĪĺ": 2011,
      "èĤī": 2012,
      "ä¼ĳ": 2013,
      "ç¡¬": 2014,
      "éĺ¶æ®µ": 2015,
      "äº®": 2016,
      "åłĤ": 2017,
      "çİ¯ä¿Ŀ": 2018,
      "199": 2019,
      "åħ³æ³¨": 2020,
      "å®ľ": 2021,
      "å®¶åºŃ": 2022,
      "å®¹æĺĵ": 2023,
      "åħ·ä½ĵ": 2024,
      "æľĭåıĭ": 2025,
      "èĭ¦": 2026,
      "åĪ¸": 2027,
      "åıĬæĹ¶": 2028,
      "çĬ¯": 2029,
      "æĪĲç»©": 2030,
      "åħĪè¿Ľ": 2031,
      "æŃ£åľ¨": 2032,
      "åıĺåĮĸ": 2033,
      "æ¸Ĳ": 2034,
      "èĪŀ": 2035,
      "æ»ĳ": 2036,
      "ä¼ĺç§Ģ": 2037,
      "æŀ¶": 2038,
      "2016": 2039,
      "æ³¨åĨĮ": 2040,
      "åĽłç´ł": 2041,
      "æŃ£å¼ı": 2042,
      "æ³°": 2043,
      "ç½ª": 2044,
      "çĸĳ": 2045,
      "åįıä¼ļ": 2046,
      "æ´¾": 2047,
      "éĻĨ": 2048,
      "å½Ĵ": 2049,
      "__": 2050,
      "å®Ĺ": 2051,
      "ä¸įè¿ĩ": 2052,
      "åªĴä½ĵ": 2053,
      "è·µ": 2054,
      "æ¯ķä¸ļ": 2055,
      "èĥ¶": 2056,
      "çĪ¶": 2057,
      "28": 2058,
      "å°¤": 2059,
      "åķĨä¸ļ": 2060,
      "ä¸Ģæł·": 2061,
      "ä¸»é¢ĺ": 2062,
      "çĥĪ": 2063,
      "çľĭåĪ°": 2064,
      "åİļ": 2065,
      "éĻ¤äºĨ": 2066,
      "æĮĩå¯¼": 2067,
      "æ±¡æŁĵ": 2068,
      "åħħåĪĨ": 2069,
      "è¿Ĳè¾ĵ": 2070,
      "å½¢å¼ı": 2071,
      "å°ıæĹ¶": 2072,
      "éĩĬ": 2073,
      "26": 2074,
      "at": 2075,
      "çĩĥ": 2076,
      "è¿ª": 2077,
      "çī¹èī²": 2078,
      "æİ¥åıĹ": 2079,
      "èµĦäº§": 2080,
      "æİªæĸ½": 2081,
      "çŃĶ": 2082,
      "æ£ĢæŁ¥": 2083,
      "åĲī": 2084,
      "è¿Ĳè¡Į": 2085,
      "æ¢¦": 2086,
      "åºĶå½ĵ": 2087,
      "è¯Ĺ": 2088,
      "è§Ī": 2089,
      "æ´ĭ": 2090,
      "æľīçļĦ": 2091,
      "èĩªåĬ¨": 2092,
      "é²ľ": 2093,
      "åĬŀåħ¬": 2094,
      "è§¦": 2095,
      "åħ¬éĩĮ": 2096,
      "ç¤¼": 2097,
      "éķ¿æľŁ": 2098,
      "å·¥èīº": 2099,
      "è¿ĻéĩĮ": 2100,
      "å¹¶ä¸Ķ": 2101,
      "åħ¬åħ±": 2102,
      "èĥŀ": 2103,
      "è®¨": 2104,
      "èĻĳ": 2105,
      "æľĿ": 2106,
      "ä¼´": 2107,
      "åħ¬å¼Ģ": 2108,
      "çģ¯": 2109,
      "éĻįä½İ": 2110,
      "æĹłæ³ķ": 2111,
      "å°ģ": 2112,
      "âĢĿãĢģ": 2113,
      "å§Ķåĳĺä¼ļ": 2114,
      "çĶ²": 2115,
      "éĽ·": 2116,
      "å¸¦æĿ¥": 2117,
      "æĺİæĺ¾": 2118,
      "27": 2119,
      "ç®±": 2120,
      "æĹ¢": 2121,
      "åľ£": 2122,
      "éĿĻ": 2123,
      "å¹¿æ³Ľ": 2124,
      "çļĦæĸ°": 2125,
      "å¤ľ": 2126,
      "çģ¾": 2127,
      "æ¹¾": 2128,
      "èĲ½å®ŀ": 2129,
      "æīįèĥ½": 2130,
      "æ£Ģæµĭ": 2131,
      "åģļå¥½": 2132,
      "å¹´åº¦": 2133,
      "æĸĹ": 2134,
      "é¹": 2135,
      "æĺ¯åľ¨": 2136,
      "è°ĥæķ´": 2137,
      "ä»Ĭå¤©": 2138,
      "ĠS": 2139,
      "æħ¢": 2140,
      "èĨľ": 2141,
      "åħ³éĶ®": 2142,
      "åĿĢ": 2143,
      "è¯į": 2144,
      "2015": 2145,
      "æŃ¤å¤ĸ": 2146,
      "èªī": 2147,
      "èµ·æĿ¥": 2148,
      "ç¼©": 2149,
      "å³°": 2150,
      "å®£ä¼ł": 2151,
      "åıĳæĮ¥": 2152,
      "ä¹ĺ": 2153,
      "åĲ¨": 2154,
      "èĪ¹": 2155,
      "åĪĽéĢł": 2156,
      "éĩıçļĦ": 2157,
      "èº«ä½ĵ": 2158,
      "æ»¡è¶³": 2159,
      "æķħäºĭ": 2160,
      "æīĵéĢł": 2161,
      "Ġ(": 2162,
      "åĪĨéĴŁ": 2163,
      "çĹĽ": 2164,
      "è§ĦèĮĥ": 2165,
      "æĺ¯ä¸Ģä¸ª": 2166,
      "æĺ¯åĲ¦": 2167,
      "æĿ¥è¶Ĭ": 2168,
      "å®ĮåĸĦ": 2169,
      "çļĦéĩįè¦ģ": 2170,
      "è¶ĬæĿ¥è¶Ĭ": 2171,
      "æķ°åŃĹ": 2172,
      "åĩºäºĨ": 2173,
      "èµĦæł¼": 2174,
      "åįĸ": 2175,
      "çī©æµģ": 2176,
      "æ··": 2177,
      "é«ĺçļĦ": 2178,
      "èĤ¤": 2179,
      "æĥł": 2180,
      "å¼ĢæĶ¾": 2181,
      "å¹³æĸ¹": 2182,
      "æĪĳçļĦ": 2183,
      "åı¥": 2184,
      "è°ĥæŁ¥": 2185,
      "çº¸": 2186,
      "é½Ĳ": 2187,
      "å¿«éĢŁ": 2188,
      "ç¬¦åĲĪ": 2189,
      "es": 2190,
      "æ´ģ": 2191,
      "åŁºåľ°": 2192,
      "å¹ķ": 2193,
      "çİī": 2194,
      "æĦıè§ģ": 2195,
      "ç»¿èī²": 2196,
      "æĢĢ": 2197,
      "çĶŁåĳ½": 2198,
      "é±": 2199,
      "å¹¶ä¸į": 2200,
      "ä¼°": 2201,
      "çĽĳçĿ£": 2202,
      "ä¸»ä»»": 2203,
      "åħ¶å®ŀ": 2204,
      "è´´": 2205,
      "è´·": 2206,
      "é±¼": 2207,
      "åİĭåĬĽ": 2208,
      "å®½": 2209,
      "éĢĶ": 2210,
      "å»ºè®®": 2211,
      "åĵĪ": 2212,
      "é¼ĵ": 2213,
      "ä¹Łä¸į": 2214,
      "è¶£": 2215,
      "æľºä¼ļ": 2216,
      "ĠC": 2217,
      "æ¦Ĥ": 2218,
      "æĿŁ": 2219,
      "æľĢç»Ī": 2220,
      "æĵįä½ľ": 2221,
      "ä¸Ĭå¸Ĥ": 2222,
      "å·¦åı³": 2223,
      "æ±ĩ": 2224,
      "æľ«": 2225,
      "çĲĨå¿µ": 2226,
      "çīĻ": 2227,
      "æĺ¯ä¸Ģç§į": 2228,
      "æ£®": 2229,
      "ä¸¾åĬŀ": 2230,
      "ç»ĦæĪĲ": 2231,
      "å±ŀäºİ": 2232,
      "æĸ¹åĲĳ": 2233,
      "åĸľæ¬¢": 2234,
      "ä¸Ŀ": 2235,
      "æĤī": 2236,
      "åľĨ": 2237,
      "åĮĸåŃ¦": 2238,
      "è¸": 2239,
      "åĮĸçļĦ": 2240,
      "åĿĲ": 2241,
      "ä»»åĬ¡": 2242,
      "è´¡": 2243,
      "éª¨": 2244,
      "éļĶ": 2245,
      "åĲĹ": 2246,
      "æ¡£": 2247,
      "æĸ°éĹ»": 2248,
      "el": 2249,
      "çĶµè§Ĩ": 2250,
      "åĪ¶ä½ľ": 2251,
      "åİ»å¹´": 2252,
      "æħ§": 2253,
      "ic": 2254,
      "70": 2255,
      "ç»Ĩèĥŀ": 2256,
      "è¯¾ç¨ĭ": 2257,
      "æ¶Īè´¹èĢħ": 2258,
      "ç¦ģ": 2259,
      "ä¹ĭåīį": 2260,
      "åĢº": 2261,
      "çĺ": 2262,
      "ç¡®å®ļ": 2263,
      "éĽħ": 2264,
      "å½ĵåľ°": 2265,
      "æķ´ä¸ª": 2266,
      "æĿ¨": 2267,
      "éĽĦ": 2268,
      "ä¸įåı¯": 2269,
      "è§Ĩé¢ĳ": 2270,
      "è¯º": 2271,
      "çº·": 2272,
      "æ¹¿": 2273,
      "éĢļçŁ¥": 2274,
      "ä¸įå¾Ĺ": 2275,
      "æĢĿæĥ³": 2276,
      "æĭŁ": 2277,
      "éĩįå¤§": 2278,
      "èĳ£": 2279,
      "æ¶Ĥ": 2280,
      "æľºåħ³": 2281,
      "29": 2282,
      "çĴ": 2283,
      "å®¿": 2284,
      "it": 2285,
      "èĶ": 2286,
      "ç³ĸ": 2287,
      "åĳĪ": 2288,
      "ç©¿": 2289,
      "å¹¸": 2290,
      "åĦ¿ç«¥": 2291,
      "ç½ļ": 2292,
      "æķĻæİĪ": 2293,
      "å¾Ħ": 2294,
      "æĶ¹åıĺ": 2295,
      "æĮĳ": 2296,
      "æķ´ä½ĵ": 2297,
      "éĤ®": 2298,
      "çļĦäºĭ": 2299,
      "å¯»": 2300,
      "èĤ¡ä»½": 2301,
      "æĻ®éĢļ": 2302,
      "æ´¥": 2303,
      "ä¸Ńå¤®": 2304,
      "å®Įåħ¨": 2305,
      "åĴ¨": 2306,
      "æĿ¯": 2307,
      "åĲĪåĲĮ": 2308,
      "æ¯Ľ": 2309,
      "ç¡®ä¿Ŀ": 2310,
      "å¡Ķ": 2311,
      "å´": 2312,
      "åĩºçļĦ": 2313,
      "åı¬": 2314,
      "ä¸Ńåįİ": 2315,
      "ä¸ªæľĪ": 2316,
      "èµĦæĸĻ": 2317,
      "æĿ¥çľĭ": 2318,
      "ä¹Łæľī": 2319,
      "è¶ĭ": 2320,
      "ä»İèĢĮ": 2321,
      "å®ŀè·µ": 2322,
      "çī¹çĤ¹": 2323,
      "ç»Łè®¡": 2324,
      "éĴĪå¯¹": 2325,
      "ç®Ģåįķ": 2326,
      "æĹĹ": 2327,
      "åĴ¨è¯¢": 2328,
      "å±ĭ": 2329,
      "æĪĲæŀľ": 2330,
      "æ¶¨": 2331,
      "ä½ĵéªĮ": 2332,
      "æı¡": 2333,
      "ä»İäºĭ": 2334,
      "è½¯ä»¶": 2335,
      "è¿ĩåİ»": 2336,
      "ç¨ĭåº¦": 2337,
      "ç§ĭ": 2338,
      "ç¼ĵ": 2339,
      "åľ³": 2340,
      "æĹ§": 2341,
      "æī¬": 2342,
      "èģĶç³»": 2343,
      "ç§ĳçłĶ": 2344,
      "ä¸įåĲĮçļĦ": 2345,
      "è·¨": 2346,
      "ä¸įè¦ģ": 2347,
      "ç§ģ": 2348,
      "æĬ¥åĲį": 2349,
      "éĵĿ": 2350,
      "èī¯å¥½çļĦ": 2351,
      "æ·±åľ³": 2352,
      "çĦ¶åĲİ": 2353,
      "æī¶": 2354,
      "æĦıè¯Ĩ": 2355,
      "åħµ": 2356,
      "çī©è´¨": 2357,
      "é¦Ļæ¸¯": 2358,
      "æĬĵ": 2359,
      "åĩĿ": 2360,
      "å®īæİĴ": 2361,
      "æİĮ": 2362,
      "æĸĩä»¶": 2363,
      "ç½²": 2364,
      "æŃ¤æ¬¡": 2365,
      "ç©ºæ°Ķ": 2366,
      "èĪªç©º": 2367,
      "éĽª": 2368,
      "çĬ¶æĢģ": 2369,
      "æĭĵ": 2370,
      "åĲ§": 2371,
      "çļĦéĹ®é¢ĺ": 2372,
      "èĻļ": 2373,
      "éĺµ": 2374,
      "31": 2375,
      "æľ¬æ¬¡": 2376,
      "åĢį": 2377,
      "éĥ½æľī": 2378,
      "å©ļ": 2379,
      "èĩªèº«": 2380,
      "çħ¤": 2381,
      "èļ": 2382,
      "æĿĢ": 2383,
      "å¹¿å·ŀ": 2384,
      "35": 2385,
      "çľŁæŃ£": 2386,
      "ä½łçļĦ": 2387,
      "æ¾³": 2388,
      "èĲ¨": 2389,
      "æĻ¯åĮº": 2390,
      "ä¸ĸçºª": 2391,
      "åĬĽéĩı": 2392,
      "ç§ĺ": 2393,
      "çĽ®çļĦ": 2394,
      "èĤ¥": 2395,
      "èıĮ": 2396,
      "ç¨ĭåºı": 2397,
      "çĪĨ": 2398,
      "æŃ£å¸¸": 2399,
      "å¿ĥçĲĨ": 2400,
      "ä¸¾è¡Į": 2401,
      "åĶ±": 2402,
      "ä¼¦": 2403,
      "éĩĳå±ŀ": 2404,
      "å½ĵæĹ¶": 2405,
      "æ®Ĭ": 2406,
      "ä¹¦è®°": 2407,
      "çļĦå·¥ä½ľ": 2408,
      "åĪĽä¸ļ": 2409,
      "èĢĥèĻĳ": 2410,
      "ç¤¾åĮº": 2411,
      "é©¾": 2412,
      "æ²Ł": 2413,
      "å®«": 2414,
      "±ä¹Ĳ": 2415,
      "æĢİä¹Ī": 2416,
      "é¢Ħè®¡": 2417,
      "le": 2418,
      "èµĦæľ¬": 2419,
      "èµ¢": 2420,
      "çĳŀ": 2421,
      "èĢĹ": 2422,
      "æĺİç¡®": 2423,
      "æģ¶": 2424,
      "æ²ī": 2425,
      "åĪ©æ¶¦": 2426,
      "æĦıä¹ī": 2427,
      "éĩİ": 2428,
      "ä¼Ł": 2429,
      "æĺł": 2430,
      "åĳ¼": 2431,
      "å°±ä¼ļ": 2432,
      "éĩįè¦ģçļĦ": 2433,
      "åĩºåı£": 2434,
      "å°¤åħ¶": 2435,
      "çĲĨè®º": 2436,
      "äººç±»": 2437,
      "å½»": 2438,
      "æĮĩåĩº": 2439,
      "ç¯ĩ": 2440,
      "éģ¿åħį": 2441,
      "åħ¨éĥ¨": 2442,
      "è¡ĮåĬ¨": 2443,
      "èĬĤèĥ½": 2444,
      "å°±ä¸ļ": 2445,
      "%;": 2446,
      "âĢĿãĢģâĢľ": 2447,
      "ä¾µ": 2448,
      "ä¿ĿéĻ©": 2449,
      "æĬķåħ¥": 2450,
      "çĥŁ": 2451,
      "éŁ©": 2452,
      "æ·±åħ¥": 2453,
      "ä¾ĽåºĶ": 2454,
      "èĵĿ": 2455,
      "å¦Ī": 2456,
      "å¤§åŀĭ": 2457,
      "çļ®èĤ¤": 2458,
      "é²ģ": 2459,
      "å¼ķèµ·": 2460,
      "åıªæĺ¯": 2461,
      "åĩĨå¤ĩ": 2462,
      "é¡µ": 2463,
      "è£ģ": 2464,
      "ĠA": 2465,
      "å¥ĭ": 2466,
      "ä¸įå°ĳ": 2467,
      "æ²¿": 2468,
      "è¿·": 2469,
      "éĢŁåº¦": 2470,
      "åĬŀæ³ķ": 2471,
      "Â°": 2472,
      "æķĪçİĩ": 2473,
      "90": 2474,
      "æ¯Ķå¦Ĥ": 2475,
      "åı«": 2476,
      "æķ°éĩı": 2477,
      "ä¸¥æł¼": 2478,
      "æľĢå¤§": 2479,
      "çĵ¦": 2480,
      "è¿Ļæł·çļĦ": 2481,
      "æļĸ": 2482,
      "çº¯": 2483,
      "ä¼Ĭ": 2484,
      "è¦": 2485,
      "åĭĩ": 2486,
      "æľºåĪ¶": 2487,
      "åĲİçļĦ": 2488,
      "èĦĤ": 2489,
      "åĨ¬": 2490,
      "ç§»åĬ¨": 2491,
      "åĪº": 2492,
      "500": 2493,
      "èĦļ": 2494,
      "èħĲ": 2495,
      "å¹³åĿĩ": 2496,
      "è¿Ľè¡ĮäºĨ": 2497,
      "ĠM": 2498,
      "åĪ¶å®ļ": 2499,
      "äº¦": 2500,
      "æ½ľ": 2501,
      "éģį": 2502,
      "è¯¯": 2503,
      "éĺħ": 2504,
      "å¹¿ä¸ľ": 2505,
      "éķľ": 2506,
      "ä¸ºä¸»": 2507,
      "ç¹": 2508,
      "è´¯": 2509,
      "åĿı": 2510,
      "æĲŃ": 2511,
      "å¤ļä¸ª": 2512,
      "ç¹ģ": 2513,
      "åįģåĪĨ": 2514,
      "èľ": 2515,
      "æµĻ": 2516,
      "åķĨåĵģ": 2517,
      "é¾Ħ": 2518,
      "æ´Ľ": 2519,
      "å¢ŀå¼º": 2520,
      "å®¾": 2521,
      "è¦Ĩ": 2522,
      "åįĩçº§": 2523,
      "æļ´": 2524,
      "æı´": 2525,
      "éĩĩåıĸ": 2526,
      "è·ĳ": 2527,
      "æľĢé«ĺ": 2528,
      "å±±ä¸ľ": 2529,
      "æĹ¶æľŁ": 2530,
      "ç¢³": 2531,
      "ç¬ĳ": 2532,
      "è¯Ħä»·": 2533,
      "åĵģè´¨": 2534,
      "åħ¬åı¸çļĦ": 2535,
      "å¾ª": 2536,
      "ä¸Ģä½ĵ": 2537,
      "æģ¢": 2538,
      "ç¾¤ä¼Ĺ": 2539,
      "åı¦å¤ĸ": 2540,
      "æ©": 2541,
      "åĮ»åŃ¦": 2542,
      "å¢Ļ": 2543,
      "çĥ¯": 2544,
      "éĿ¢å¯¹": 2545,
      "æĸĩæĺİ": 2546,
      "å¡ŀ": 2547,
      "èĭ±åĽ½": 2548,
      "æ¸©åº¦": 2549,
      "è´¡çĮ®": 2550,
      "èĳ£äºĭ": 2551,
      "åĲĪçĲĨ": 2552,
      "è´¸æĺĵ": 2553,
      "ro": 2554,
      "å¤ļçļĦ": 2555,
      "æ¬§æ´²": 2556,
      "ä¼ĺè´¨": 2557,
      "æģ©": 2558,
      "å®īè£ħ": 2559,
      "è¡£": 2560,
      "è°·": 2561,
      "åĬ¨åĬĽ": 2562,
      "é©¶": 2563,
      "èĽĭ": 2564,
      "è´¥": 2565,
      "çĶµæ±ł": 2566,
      "æ½®": 2567,
      "åĲĦç±»": 2568,
      "2014": 2569,
      "æĻºæħ§": 2570,
      "èĭĹ": 2571,
      "åºĦ": 2572,
      "æĶ¹åĸĦ": 2573,
      "åįĬå¹´": 2574,
      "å¦ĤæŃ¤": 2575,
      "éļĲ": 2576,
      "åĨ°": 2577,
      "åĲĮæ¯Ķå¢ŀéķ¿": 2578,
      "æ¼«": 2579,
      "ä¾§": 2580,
      "éĽĨä¸Ń": 2581,
      "çļĦæĥħåĨµ": 2582,
      "æ³¥": 2583,
      "éĺ»": 2584,
      "åľŁåľ°": 2585,
      "å±ķç¤º": 2586,
      "éľĩ": 2587,
      "ç»Łä¸Ģ": 2588,
      "å¯¿": 2589,
      "éĹŃ": 2590,
      "æ¯ıå¹´": 2591,
      "åĬłå¿«": 2592,
      "åĲĮåŃ¦": 2593,
      "åĪĳ": 2594,
      "çĽ¸æ¯Ķ": 2595,
      "åĨħçļĦ": 2596,
      "åħ¼": 2597,
      "è´¢æĶ¿": 2598,
      "è¿ħ": 2599,
      "èĤº": 2600,
      "å«": 2601,
      "è¿ŀç»Ń": 2602,
      "åŃĶ": 2603,
      "æĬ¥éģĵ": 2604,
      "çĶµè¯Ŀ": 2605,
      "èĴĻ": 2606,
      "éģĵè·¯": 2607,
      "æģ¢å¤į": 2608,
      "ä¼Ļ": 2609,
      "åĬĽçļĦ": 2610,
      "âĢĻ": 2611,
      "åŃ£åº¦": 2612,
      "æĩ": 2613,
      "åĶĲ": 2614,
      "æµĵ": 2615,
      "çĹħæ¯Ĵ": 2616,
      "ãĢĤ(": 2617,
      "æĪĲéķ¿": 2618,
      "çĻĮ": 2619,
      "åŃ¦ç§ĳ": 2620,
      "åĨľæĿĳ": 2621,
      "åĢĴ": 2622,
      "çĽ¸å¯¹": 2623,
      "çĽĳç®¡": 2624,
      "çĶŁçļĦ": 2625,
      "è¯Ńè¨Ģ": 2626,
      "çİ»": 2627,
      "ç»ķ": 2628,
      "åİŁåĪĻ": 2629,
      "ä»ĸä»¬çļĦ": 2630,
      "æ¬¢è¿İ": 2631,
      "åľĪ": 2632,
      "å¼±": 2633,
      "å¹³æĸ¹ç±³": 2634,
      "çĥ§": 2635,
      "ac": 2636,
      "çļĩ": 2637,
      "ĠP": 2638,
      "æľĪä»½": 2639,
      "è´¹çĶ¨": 2640,
      "ç£¨": 2641,
      "æĿ°": 2642,
      "ç¼ĺ": 2643,
      "æ³¡": 2644,
      "åį·": 2645,
      "æĬĢèĥ½": 2646,
      "æľĢå¤§çļĦ": 2647,
      "ç»´æĬ¤": 2648,
      "åĬłåħ¥": 2649,
      "æµª": 2650,
      "ãĢĭãĢģ": 2651,
      "åĵ¥": 2652,
      "é¡¿": 2653,
      "è¡¨éĿ¢": 2654,
      "æĶ¿æ²»": 2655,
      "åħļåĳĺ": 2656,
      "æ°§åĮĸ": 2657,
      "èĤ¯": 2658,
      "äººåı£": 2659,
      "å¼ĥ": 2660,
      "å°Ĩåľ¨": 2661,
      "æ¢ħ": 2662,
      "æĬĺ": 2663,
      "å±ı": 2664,
      "çĦ¶èĢĮ": 2665,
      "åĿ¡": 2666,
      "çī¹æ®Ĭ": 2667,
      "æ¶Īæģ¯": 2668,
      "æĪªèĩ³": 2669,
      "æİ¨å¹¿": 2670,
      "æ¸¸å®¢": 2671,
      "é«ĺéĢŁ": 2672,
      "åĽ°éļ¾": 2673,
      "æ¢ģ": 2674,
      "ç»ıçĲĨ": 2675,
      "é¦ĸåħĪ": 2676,
      "æĥĬ": 2677,
      "ãĢĭ(": 2678,
      "éĥ½ä¼ļ": 2679,
      "ä¿Ħ": 2680,
      "è§īå¾Ĺ": 2681,
      "å¤ļç§į": 2682,
      "çĴĥ": 2683,
      "ä¼ģä¸ļçļĦ": 2684,
      "è¯¦": 2685,
      "å¹²éĥ¨": 2686,
      "æľīä¸Ģ": 2687,
      "è´Ńä¹°": 2688,
      "åħ¬å¸ĥ": 2689,
      "è¯ģåĪ¸": 2690,
      "å·¥ä½ľçļĦ": 2691,
      "ç¿»": 2692,
      "åģı": 2693,
      "éĩįåºĨ": 2694,
      "è®¤è¯Ĩ": 2695,
      "æ¯ıä¸ª": 2696,
      "æĳ©": 2697,
      "æĹłè®º": 2698,
      "éĵģè·¯": 2699,
      "è®¤çľŁ": 2700,
      "è¾ĳ": 2701,
      "å¡«": 2702,
      "æ°ĳæĹı": 2703,
      "ä¼į": 2704,
      "æĶ¯ä»ĺ": 2705,
      "å²Ĺä½į": 2706,
      "åľ°äº§": 2707,
      "æķ¬": 2708,
      "çļĦå½±åĵį": 2709,
      "å¸Ŀ": 2710,
      "åĩ¡": 2711,
      "åĲ¸å¼ķ": 2712,
      "ä¸Ńå°ı": 2713,
      "åħ·å¤ĩ": 2714,
      "æ¯ıå¤©": 2715,
      "çļĦè¯Ŀ": 2716,
      "çĦ¦": 2717,
      "åķĨåĬ¡": 2718,
      "is": 2719,
      "è¡¡": 2720,
      "æ±Łèĭı": 2721,
      "æº¶": 2722,
      "ä½įç½®": 2723,
      "è¾ħ": 2724,
      "äºĭä»¶": 2725,
      "åĲĦåľ°": 2726,
      "æµĭè¯ķ": 2727,
      "æĦŁè§ī": 2728,
      "å±ħæ°ĳ": 2729,
      "è¯´æĺİ": 2730,
      "è½¦è¾Ĩ": 2731,
      "å¦ĩ": 2732,
      "æĪĲåĳĺ": 2733,
      "åĪĨä¸º": 2734,
      "å¢¨": 2735,
      "åĽĽå·Ŀ": 2736,
      "åįļå£«": 2737,
      "å®ĩ": 2738,
      "çŃ¹": 2739,
      "è½¨": 2740,
      "åĶ¯": 2741,
      "æľºåľº": 2742,
      "é£Łçī©": 2743,
      "ä¸»ä¹ī": 2744,
      "äº§åĵģçļĦ": 2745,
      "45": 2746,
      "ç»ĵæĿŁ": 2747,
      "å¼¹": 2748,
      "å®ĥä»¬": 2749,
      "åĲ´": 2750,
      "åıįåºĶ": 2751,
      "et": 2752,
      "è´Łè´£äºº": 2753,
      "çªģçł´": 2754,
      "å¹¿å¤§": 2755,
      "æĦŁæŁĵ": 2756,
      "ä¹Łä¼ļ": 2757,
      "......": 2758,
      "çĽĲ": 2759,
      "å¹¿åĳĬ": 2760,
      "èŀįåĲĪ": 2761,
      "è±ª": 2762,
      "éĢĲæ¸Ĳ": 2763,
      "ä¸Ģä¸ĭ": 2764,
      "æľīäºĽ": 2765,
      "æµĻæ±Ł": 2766,
      "ä¾Ŀæ³ķ": 2767,
      "éĢĴ": 2768,
      "ç§°ä¸º": 2769,
      "2000": 2770,
      "åĭ¤": 2771,
      "è¯¸": 2772,
      "åįıè®®": 2773,
      "æķı": 2774,
      "èĳĹåĲį": 2775,
      "çĲĨè§£": 2776,
      "âĢĺ": 2777,
      "ä¹Ļ": 2778,
      "ä¸ĭçļĦ": 2779,
      "ç²Ĵ": 2780,
      "éĩįè§Ĩ": 2781,
      "çİ»çĴĥ": 2782,
      "ä¸Ģå¹´": 2783,
      "çĻ£": 2784,
      "ä¾ĭå¦Ĥ": 2785,
      "è¶ĭåĬ¿": 2786,
      "å®ĥçļĦ": 2787,
      "èĢ³": 2788,
      "æ¯«": 2789,
      "ä¸ľè¥¿": 2790,
      "å¹´è½»": 2791,
      "ä¸įåĪ°": 2792,
      "ç»ıåİĨ": 2793,
      "ç»ıå¸¸": 2794,
      "oo": 2795,
      "å·ŀå¸Ĥ": 2796,
      "æĲº": 2797,
      "æģĴ": 2798,
      "èįĲ": 2799,
      "æĹ¥å¸¸": 2800,
      "äº¡": 2801,
      "åĺī": 2802,
      "è´Ŀ": 2803,
      "æĸ¹ä¾¿": 2804,
      "äº¿ç¾İåħĥ": 2805,
      "è°ĵ": 2806,
      "ç»ĻäºĪ": 2807,
      "æĮ¯": 2808,
      "éĢĤåĲĪ": 2809,
      "å¤§å¤ļ": 2810,
      "æ³ķéĻ¢": 2811,
      "ç¬¬åĽĽ": 2812,
      "æł·çļĦ": 2813,
      "çīĽçļ®": 2814,
      "æĮĳæĪĺ": 2815,
      "å¤§éĩı": 2816,
      "åıĮæĸ¹": 2817,
      "è·Ŀç¦»": 2818,
      "çĽ¸ä¿¡": 2819,
      "çĹĩçĬ¶": 2820,
      "å¤§ä¼ļ": 2821,
      "è¯ģæĺİ": 2822,
      "æļĤ": 2823,
      "éĥĳ": 2824,
      "å¤Ħäºİ": 2825,
      "åħ¬åĽŃ": 2826,
      "æ¥ļ": 2827,
      "æĸ¹éĿ¢çļĦ": 2828,
      "300": 2829,
      "ç¤ºèĮĥ": 2830,
      "æ¯Ķä¾ĭ": 2831,
      "åĪĬ": 2832,
      "ç«Ł": 2833,
      "æİ¨åĩº": 2834,
      "æ³ī": 2835,
      "2013": 2836,
      "çīĽçļ®çĻ£": 2837,
      "èĥ¡": 2838,
      "åıªè¦ģ": 2839,
      "å½ĵçĦ¶": 2840,
      "è®¡ç®Ĺæľº": 2841,
      "æĥ¯": 2842,
      "æī¿æĭħ": 2843,
      "è¿¹": 2844,
      "36": 2845,
      "å¿ĺ": 2846,
      "åĿĽ": 2847,
      "åıĬåħ¶": 2848,
      "çªĹ": 2849,
      "åĪ·": 2850,
      "----": 2851,
      "æ¶īåıĬ": 2852,
      "åĩŃ": 2853,
      "åħĪçĶŁ": 2854,
      "éĨĴ": 2855,
      "æľĹ": 2856,
      "å°Ĭ": 2857,
      "ç´¯è®¡": 2858,
      "ç¼´": 2859,
      "äººå£«": 2860,
      "åĳĬè¯ī": 2861,
      "éĤĢ": 2862,
      "åĮĸå·¥": 2863,
      "è®¤è¯ģ": 2864,
      "åı¦ä¸Ģ": 2865,
      "èĩªçĶ±": 2866,
      "éĺ´": 2867,
      "æľºåĻ¨": 2868,
      "è´·æ¬¾": 2869,
      "æ¦ľ": 2870,
      "çĽ¸å½ĵ": 2871,
      "çıł": 2872,
      "èĲ¥åħ»": 2873,
      "éĿĴå¹´": 2874,
      "åŃ¦æľ¯": 2875,
      "é¢ľ": 2876,
      "åĩºçīĪ": 2877,
      "åĪĽä½ľ": 2878,
      "èİ±": 2879,
      "2012": 2880,
      "çĲĥéĺŁ": 2881,
      "æİĴåĲį": 2882,
      "ä¸¹": 2883,
      "om": 2884,
      "æľĢä½³": 2885,
      "èħ¾": 2886,
      "çŀ": 2887,
      "çĶµåĬ¨": 2888,
      "è®°å½ķ": 2889,
      "æĪĲäºĨ": 2890,
      "èĢħçļĦ": 2891,
      "ç¯®": 2892,
      "æ±¡æ°´": 2893,
      "çŁ¥åĲį": 2894,
      "æ®ĭ": 2895,
      "åĢ¼å¾Ĺ": 2896,
      "ä¹±": 2897,
      "åŃĻ": 2898,
      "è¿ĳå¹´æĿ¥": 2899,
      "è§Ĥä¼Ĺ": 2900,
      "åįĹçľģ": 2901,
      "è¦ĨçĽĸ": 2902,
      "åħ¬åĳĬ": 2903,
      "ä¸īä¸ª": 2904,
      "éĵľ": 2905,
      "èĲ¥ä¸ļ": 2906,
      "ä¼¯": 2907,
      "é¥Ń": 2908,
      "è¯ķéªĮ": 2909,
      "çļĦå°ı": 2910,
      "ä¸´åºĬ": 2911,
      "ãĢĳ": 2912,
      "å¦Ĥä»Ĭ": 2913,
      "æľīæľº": 2914,
      "ãĢĭãĢģãĢĬ": 2915,
      "æį·": 2916,
      "é«ĺåº¦": 2917,
      "æĶ¹éĢł": 2918,
      "çļĦä¸»è¦ģ": 2919,
      "æĪĲéĥ½": 2920,
      "çĤ¼": 2921,
      "ãĢĲ": 2922,
      "èĲ¥éĶĢ": 2923,
      "æĿ¥æºĲ": 2924,
      "åĲĦé¡¹": 2925,
      "éĢļå¸¸": 2926,
      "åľ¨çº¿": 2927,
      "å¾·åĽ½": 2928,
      "å·¥åħ·": 2929,
      "è°ģ": 2930,
      "ç®Ģç§°": 2931,
      "æľīçĿĢ": 2932,
      "æĸ°åŀĭ": 2933,
      "æĽ¿": 2934,
      "åĽ½åĬ¡": 2935,
      "é¼ĵåĬ±": 2936,
      "çĶ¨çļĦ": 2937,
      "èµŀ": 2938,
      "å®£å¸ĥ": 2939,
      "å¹¼": 2940,
      "æİ¥è§¦": 2941,
      "å¤įæĿĤ": 2942,
      "as": 2943,
      "èĩªä¸»": 2944,
      "åħļå§Ķ": 2945,
      "èµı": 2946,
      "é¢Ħéĺ²": 2947,
      "åģ¿": 2948,
      "éī": 2949,
      "éī´": 2950,
      "åħ¬è·¯": 2951,
      "çĶµåĬĽ": 2952,
      "ç¬¬åįģ": 2953,
      "æİ¢ç´¢": 2954,
      "2010": 2955,
      "åľ°åĿĢ": 2956,
      "å®¶éķ¿": 2957,
      "æĭĽçĶŁ": 2958,
      "å¤ªéĺ³": 2959,
      "çļĦäº§åĵģ": 2960,
      "çĶĺ": 2961,
      "çļĦæĸ¹å¼ı": 2962,
      "éģµ": 2963,
      "çİ°è±¡": 2964,
      "èį¯çī©": 2965,
      "æ·»": 2966,
      "çĽ¸åºĶ": 2967,
      "å¤§åĪ©": 2968,
      "ç¥ĸ": 2969,
      "é«ĺæł¡": 2970,
      "éĩįæĸ°": 2971,
      "æĮĤ": 2972,
      "è´¢åĬ¡": 2973,
      "æĬ½": 2974,
      "é¦ĸæ¬¡": 2975,
      "ä¸ĩäºº": 2976,
      "äººå·¥": 2977,
      "ç´łè´¨": 2978,
      "ä¸ĭæĿ¥": 2979,
      "èģĮå·¥": 2980,
      "æľīæīĢ": 2981,
      "çĻ»è®°": 2982,
      "æĪ´": 2983,
      "æī©å¤§": 2984,
      "re": 2985,
      "åĽ½åĬ¡éĻ¢": 2986,
      "èĬĤçĽ®": 2987,
      "ä¸»ç®¡": 2988,
      "å¼Ł": 2989,
      "åĨħéĥ¨": 2990,
      "æİī": 2991,
      "é¢ĨåħĪ": 2992,
      "æĹ¨": 2993,
      "è®¾ç«ĭ": 2994,
      "æĸĩç«ł": 2995,
      "è½´": 2996,
      "ä»įçĦ¶": 2997,
      "æİ¨èįĲ": 2998,
      "å½¢è±¡": 2999,
      "åľ¨ä¸ŃåĽ½": 3000,
      "æīİ": 3001,
      "ç¡ķ": 3002,
      "è¯ģä¹¦": 3003,
      "éĹ²": 3004,
      "éĤ£äºĽ": 3005,
      "ç±į": 3006,
      "æ´ª": 3007,
      "åĩºæĿ¥": 3008,
      "æĲľ": 3009,
      "il": 3010,
      "èİ«": 3011,
      "ä¹ĭéĹ´çļĦ": 3012,
      "æ´ŀ": 3013,
      "ç±»åŀĭ": 3014,
      "çļĦæĹ¶éĹ´": 3015,
      "æĹ¥èµ·": 3016,
      "æĢķ": 3017,
      "éº¦": 3018,
      "ä¼ĺåĮĸ": 3019,
      "æĦĪ": 3020,
      "æ²»çĲĨ": 3021,
      "çĽ´æĴŃ": 3022,
      "éº»": 3023,
      "è¿Ķ": 3024,
      "çĭ¬ç«ĭ": 3025,
      "łéģĵ": 3026,
      "åı¬å¼Ģ": 3027,
      "é¢Ĺ": 3028,
      "ä¸ĭåįĪ": 3029,
      "åĬ¨çī©": 3030,
      "çļĦä¼ģä¸ļ": 3031,
      "198": 3032,
      "åįıè°ĥ": 3033,
      "å¹´ä»£": 3034,
      "æ¤įçī©": 3035,
      "å²¸": 3036,
      "éģŃ": 3037,
      "æĽ¼": 3038,
      "é£İæł¼": 3039,
      "ç´«": 3040,
      "ç¥Ŀ": 3041,
      "37": 3042,
      "éĢļä¿¡": 3043,
      "éļĨ": 3044,
      "çĬ¶åĨµ": 3045,
      "çĮª": 3046,
      "è¿ģ": 3047,
      "ä¸ºä»Ģä¹Ī": 3048,
      "åĪĨäº«": 3049,
      "ä¼ļè®¡": 3050,
      "æ¶µ": 3051,
      "æī¹åĩĨ": 3052,
      "ĠT": 3053,
      "æłı": 3054,
      "é«ĺçº§": 3055,
      "èĦī": 3056,
      "å¯Ĵ": 3057,
      "æľīäºº": 3058,
      "èĢĮæĺ¯": 3059,
      "è¯Ħä¼°": 3060,
      "éĺŁä¼į": 3061,
      "èº«ä»½": 3062,
      "ä¸įè¶³": 3063,
      "å¾½": 3064,
      "è¿ħéĢŁ": 3065,
      "å¾Ĳ": 3066,
      "æŃ£ç¡®": 3067,
      "é»ĺ": 3068,
      "åĮ»çĶŁ": 3069,
      "åıĳè¡¨": 3070,
      "åķĨæłĩ": 3071,
      "éĻĲåĪ¶": 3072,
      "è®Ńç»ĥ": 3073,
      "è´¦": 3074,
      "èĢĮè¨Ģ": 3075,
      "åıĳçĶµ": 3076,
      "2011": 3077,
      "çļĦåŁºç¡Ģ": 3078,
      "è¾Ľ": 3079,
      "åĸ·": 3080,
      "åĨłåĨĽ": 3081,
      "åĲ¯åĬ¨": 3082,
      "å°ĳå¹´": 3083,
      "å§ĵ": 3084,
      "å®ı": 3085,
      "è¿ĽæŃ¥": 3086,
      "é©¾é©¶": 3087,
      "å®ĭ": 3088,
      "åħĪåĲİ": 3089,
      "çĻ¾åĪĨ": 3090,
      "åĵªäºĽ": 3091,
      "ä¸»åĬ¨": 3092,
      "å§Ĩ": 3093,
      "äººæ°ĳå¸ģ": 3094,
      "ä¸ĢåĪĩ": 3095,
      "ä»¥åĲİ": 3096,
      "åĲĮæľŁ": 3097,
      "æĽ´æĺ¯": 3098,
      "ä¼łæĴŃ": 3099,
      "ä¹łæĥ¯": 3100,
      "ä¹ı": 3101,
      "èĪĴ": 3102,
      "çļĦæĬĢæľ¯": 3103,
      "å®ŀéªĮå®¤": 3104,
      "éĿ¢ä¸´": 3105,
      "èĤ¡ä¸ľ": 3106,
      "æĺĮ": 3107,
      "åĩłä¹İ": 3108,
      "åģļåĪ°": 3109,
      "æİĮæı¡": 3110,
      "çģŃ": 3111,
      "èŀįèµĦ": 3112,
      "è®©äºº": 3113,
      "åĭĴ": 3114,
      "åĮħè£ħ": 3115,
      "å§ĭç»Ī": 3116,
      "åŀĥ": 3117,
      "éĶĭ": 3118,
      "åľ¾": 3119,
      "å¿Ĩ": 3120,
      "åŀĥåľ¾": 3121,
      "ĠB": 3122,
      ",ãĢĬ": 3123,
      "å½ĵåīį": 3124,
      "æĮĩæłĩ": 3125,
      "æıı": 3126,
      "åĬŀçĲĨ": 3127,
      "äº«åıĹ": 3128,
      "éħįåĲĪ": 3129,
      "æıĲä¾ĽäºĨ": 3130,
      "æĻ¶": 3131,
      "åĬŀåħ¬å®¤": 3132,
      "âĢĿâĢľ": 3133,
      "ä¸Ĭåįĩ": 3134,
      "åĪĨåŃĲ": 3135,
      "æĬµ": 3136,
      "éĺ²æİ§": 3137,
      "æ·¡": 3138,
      "å²©": 3139,
      "1000": 3140,
      "è¯ĳ": 3141,
      "æĬ¢": 3142,
      "éĿ¢çļĦ": 3143,
      "åĨįæ¬¡": 3144,
      "è¿ŀæİ¥": 3145,
      "å»ºæĪĲ": 3146,
      "è½¬åŀĭ": 3147,
      "å·§": 3148,
      "ion": 3149,
      "å°ĺ": 3150,
      "åŁºäºİ": 3151,
      "åıĳè¡Į": 3152,
      "èĥĥ": 3153,
      "ç»ĺ": 3154,
      "å¥³æĢ§": 3155,
      "ou": 3156,
      "å£ģ": 3157,
      "çľŁå®ŀ": 3158,
      "èĬ¯": 3159,
      "å¥¶": 3160,
      "ä»¤äºº": 3161,
      "çī¹åĪ«æĺ¯": 3162,
      "am": 3163,
      "çº¤": 3164,
      "è±Ĩ": 3165,
      "ä¹Į": 3166,
      "ä»ģ": 3167,
      "èī¯å¥½": 3168,
      "çŃīçŃī": 3169,
      "çĲĥåĳĺ": 3170,
      "éĽķ": 3171,
      "æľīäºĨ": 3172,
      "åŃķ": 3173,
      "çªģåĩº": 3174,
      "33": 3175,
      "æĸĳ": 3176,
      "å¸ĤåľºçļĦ": 3177,
      "è¿Ļæ¬¡": 3178,
      "ç½Ĺæĸ¯": 3179,
      "æĽ´å¤ļçļĦ": 3180,
      "æ³ķåĽ½": 3181,
      "ä¿Ĺ": 3182,
      "æĭĽèģĺ": 3183,
      "ä¹³": 3184,
      "æĹ¦": 3185,
      "éĢĤåºĶ": 3186,
      "äººæ°ĳæĶ¿åºľ": 3187,
      "å¾ªçİ¯": 3188,
      "çº½": 3189,
      "èµµ": 3190,
      "ä¸Ĭè¿°": 3191,
      "åıªèĥ½": 3192,
      "æĢ§åĴĮ": 3193,
      "æĽ¾ç»ı": 3194,
      "ä½ĵçİ°": 3195,
      "åĿ¦": 3196,
      "å¨±ä¹Ĳ": 3197,
      "ch": 3198,
      "æ»¤": 3199,
      "å£®": 3200,
      "è¿ĲçĶ¨": 3201,
      "è¿ĳæĹ¥": 3202,
      "åħ±äº«": 3203,
      "æµ®": 3204,
      "å¼ºçļĦ": 3205,
      "èį·": 3206,
      "æ²ŁéĢļ": 3207,
      "äº©": 3208,
      "åľ°ä½į": 3209,
      "å¤ļå¹´": 3210,
      "çĭ¬çī¹": 3211,
      "æĶ¯åĩº": 3212,
      "æ¨ª": 3213,
      "èĢĥçĶŁ": 3214,
      "å°½ç®¡": 3215,
      "ĠG": 3216,
      "ä¸ĵåĪ©": 3217,
      "æł¡åĽŃ": 3218,
      "ä¸ģ": 3219,
      "ä¸Ģå®ļè¦ģ": 3220,
      "èĩ³ä»Ĭ": 3221,
      "ç»ª": 3222,
      "ä¸Ģå®ļçļĦ": 3223,
      "ä¹Łåı¯ä»¥": 3224,
      "çİ°å®ŀ": 3225,
      "ä½ĵçļĦ": 3226,
      "è¿½æ±Ĥ": 3227,
      "æ³ķè§Ħ": 3228,
      "æĽ´å¥½": 3229,
      "æĿŃ": 3230,
      "åĬłå¤§": 3231,
      "è¾ī": 3232,
      "èļĢ": 3233,
      "è¿Ľåı£": 3234,
      "çıį": 3235,
      "éĩĩè´Ń": 3236,
      "ä½ľèĢħ": 3237,
      "æĤ²": 3238,
      "åĲĮæł·": 3239,
      "å¼ºåº¦": 3240,
      "æĭħä»»": 3241,
      "34": 3242,
      "åĴĮåĽ½": 3243,
      "å±¥": 3244,
      "æĸ°èĥ½æºĲ": 3245,
      "ä¸Ģä½į": 3246,
      "çķħ": 3247,
      "åĩ¯": 3248,
      "åŃ¦ä¼ļ": 3249,
      "å®ŀåĬĽ": 3250,
      "æľ¬ç§ĳ": 3251,
      "å¼ķå¯¼": 3252,
      "åħħæ»¡": 3253,
      "38": 3254,
      "å¿ħè¦ģ": 3255,
      "ä¸»æĮģ": 3256,
      "å¸ĥå±Ģ": 3257,
      "èĭ±è¯Ń": 3258,
      "æ©¡": 3259,
      "ç¥ŀç»ı": 3260,
      "åŃ¦ä½į": 3261,
      "ãĢĭãĢĤ": 3262,
      "ĠâĢľ": 3263,
      "å¼ºè°ĥ": 3264,
      "é©»": 3265,
      "è·Į": 3266,
      "æĴĳ": 3267,
      "åħįè´¹": 3268,
      "è¡¨è¾¾": 3269,
      "é©±": 3270,
      "æĿĨ": 3271,
      "å¤©çĦ¶": 3272,
      "çļĦä¸Ģä¸ª": 3273,
      "ä¼ļä¸Ĭ": 3274,
      "75": 3275,
      "æľĢè¿ĳ": 3276,
      "å¡ĳæĸĻ": 3277,
      "ç¢į": 3278,
      "èĪį": 3279,
      "åı¯èĥ½ä¼ļ": 3280,
      "åħ¬çĽĬ": 3281,
      "åĲĪæł¼": 3282,
      "åĮ»èį¯": 3283,
      "æ®ĸ": 3284,
      "æĭĶ": 3285,
      "æ°ı": 3286,
      "é«ĺæķĪ": 3287,
      "èµĽåŃ£": 3288,
      "å¾Ģå¾Ģ": 3289,
      "çĽĪ": 3290,
      "èĤ¿": 3291,
      "æĭĽæłĩ": 3292,
      "å°¤åħ¶æĺ¯": 3293,
      "çļĦåĲĮæĹ¶": 3294,
      "ä¹ĭå¤ĸ": 3295,
      "åĪ©çĽĬ": 3296,
      "èĦ¸": 3297,
      "æĪ¿åľ°äº§": 3298,
      "éĺħè¯»": 3299,
      "äºĭå®ŀ": 3300,
      "å°ıç»Ħ": 3301,
      "åĸĿ": 3302,
      "ing": 3303,
      "å¤©æ´¥": 3304,
      "ol": 3305,
      "ĠçļĦ": 3306,
      "å¾Ĵ": 3307,
      "éħįå¥Ĺ": 3308,
      "99": 3309,
      "æīĢåľ¨": 3310,
      "éĶĪ": 3311,
      "è®¾ç½®": 3312,
      "çĬ¯ç½ª": 3313,
      "æĻĵ": 3314,
      "æ°¨": 3315,
      "ä¸ĩåĲ¨": 3316,
      "å¾®ä¿¡": 3317,
      "ä¸ĬåįĪ": 3318,
      "èĩªæĪĳ": 3319,
      "è¡Įä¸ļçļĦ": 3320,
      "æĥ³è¦ģ": 3321,
      "ä¾Ŀæį®": 3322,
      "ä»ĵ": 3323,
      "çĤī": 3324,
      "éĩĮçļĦ": 3325,
      "å°¾": 3326,
      "åħ¨ä½ĵ": 3327,
      "ç£ģ": 3328,
      "èĸĦ": 3329,
      "åħĥç´ł": 3330,
      "eb": 3331,
      "å¤º": 3332,
      "____": 3333,
      "çĶµèĦĳ": 3334,
      "åĳĪçİ°": 3335,
      "åİ¦": 3336,
      "éĵº": 3337,
      "çĪ¶æ¯į": 3338,
      "çĶ³æĬ¥": 3339,
      "éĻ¶": 3340,
      "ç½ĳä¸Ĭ": 3341,
      "ä½łä»¬": 3342,
      "åįĹäº¬": 3343,
      "å°Ĩä¼ļ": 3344,
      "è£Ĥ": 3345,
      "é¥®é£Ł": 3346,
      "æľ±": 3347,
      "æĸ°æĬĢæľ¯": 3348,
      "ä¿Ħç½Ĺæĸ¯": 3349,
      "ä¸ļç»©": 3350,
      "ç²ĺ": 3351,
      "æµ·å¤ĸ": 3352,
      "èĩ´åĬĽ": 3353,
      "çļĦæľįåĬ¡": 3354,
      "æ³µ": 3355,
      "é¸¡": 3356,
      "å·¥èµĦ": 3357,
      "å¹´é¾Ħ": 3358,
      "åį°åº¦": 3359,
      "æĺ¯æĮĩ": 3360,
      "è£ħé¥°": 3361,
      "åħįçĸ«": 3362,
      "èĤ¯å®ļ": 3363,
      "è·ĥ": 3364,
      "å¼ºåĮĸ": 3365,
      "çļĦçĶŁæ´»": 3366,
      "æĹĭ": 3367,
      "çī¹å¾ģ": 3368,
      "ç¾Ĭ": 3369,
      "ĠL": 3370,
      "ä¸Ļ": 3371,
      "æľ¬èº«": 3372,
      "èĥİ": 3373,
      "äºĨä¸Ģä¸ª": 3374,
      "çŁ³æ²¹": 3375,
      "æī£": 3376,
      "å®ŀè¡Į": 3377,
      "è°±": 3378,
      "é«ĺçŃī": 3379,
      "éĻ¢æł¡": 3380,
      "çģ°": 3381,
      "çļĦåľ°æĸ¹": 3382,
      "çŃīæĸ¹éĿ¢": 3383,
      "åĽ´ç»ķ": 3384,
      "èĤ¡ä»½æľīéĻĲåħ¬åı¸": 3385,
      "è¹": 3386,
      "çĲĨæĥ³": 3387,
      "ä¸ĬåįĬå¹´": 3388,
      "éĢĲæŃ¥": 3389,
      "å±ķè§Ī": 3390,
      "65": 3391,
      "ä¼¸": 3392,
      "æĻ¨": 3393,
      "è·³": 3394,
      "èĳ¡": 3395,
      "æ¸łéģĵ": 3396,
      "ä¸°å¯ĮçļĦ": 3397,
      "çĹħä¾ĭ": 3398,
      "ä½¿å¾Ĺ": 3399,
      "åį±éĻ©": 3400,
      "è¿Ŀæ³ķ": 3401,
      "å¹¸ç¦ı": 3402,
      "åĪĢ": 3403,
      "çĿ¡": 3404,
      "ä¸Ģå®¶": 3405,
      "åħ¬ä¼Ĺ": 3406,
      "åİĤå®¶": 3407,
      "æ¶Īéĺ²": 3408,
      "ç¦»åŃĲ": 3409,
      "48": 3410,
      "ãĥ": 3411,
      "å®ħ": 3412,
      "æįŁå¤±": 3413,
      "æĺĨ": 3414,
      "æ³½": 3415,
      "åıĺå¾Ĺ": 3416,
      "å®Įæķ´": 3417,
      "è®¨è®º": 3418,
      "å¸¸è§ģ": 3419,
      "æĬķæłĩ": 3420,
      "çłĶç©¶çĶŁ": 3421,
      "äººæķ°": 3422,
      "çİ¯èĬĤ": 3423,
      "åįģäºĮ": 3424,
      "é«ĺç«¯": 3425,
      "éĶģ": 3426,
      "å¤§éĥ¨åĪĨ": 3427,
      "å¯¹è±¡": 3428,
      "ç²®": 3429,
      "æ»´": 3430,
      "ĠR": 3431,
      "çľģçº§": 3432,
      "åŃ¦çĶŁçļĦ": 3433,
      "æŃ¦æ±ī": 3434,
      "æĹ¥åīį": 3435,
      "é¡ºåĪ©": 3436,
      "çĤŃ": 3437,
      "ä¿Ŀæ¸©": 3438,
      "å¯º": 3439,
      "åĶ¯ä¸Ģ": 3440,
      "èĤĮ": 3441,
      "åį±å®³": 3442,
      "åħ¨å¸Ĥ": 3443,
      "æľºçļĦ": 3444,
      "äºĭæķħ": 3445,
      "å¥ī": 3446,
      "æĶ¶éĽĨ": 3447,
      "ä½İäºİ": 3448,
      "æī¾åĪ°": 3449,
      "å¦Ĥä¸ĭ": 3450,
      "åĲĦä¸ª": 3451,
      "èĢĥæł¸": 3452,
      "çľŁçļĦ": 3453,
      "åľ¨è¿Ļ": 3454,
      "æĦŁåıĹ": 3455,
      "å®ĺæĸ¹": 3456,
      "åĵģç§į": 3457,
      "è§Ĥå¯Ł": 3458,
      "äºķ": 3459,
      "èĥĮæĻ¯": 3460,
      "ä¼ı": 3461,
      "æĸ°åĨł": 3462,
      "çĺ¤": 3463,
      "æĺ¯ä»Ģä¹Ī": 3464,
      "æģĲ": 3465,
      "å¿ĹæĦ¿": 3466,
      "æ¦Ĥå¿µ": 3467,
      "ä¼Ĺå¤ļ": 3468,
      "äººåľ¨": 3469,
      "æĦıåĳ³": 3470,
      "å¾Īå¤§": 3471,
      "æ¯ķä¸ļçĶŁ": 3472,
      "çİ°æľī": 3473,
      "æĸ°å¢ŀ": 3474,
      "å¤§å¹ħ": 3475,
      "åĪ©äºİ": 3476,
      "èģĶçĽŁ": 3477,
      "æķ¢": 3478,
      "è®ºæĸĩ": 3479,
      "è´¯å½»": 3480,
      "åħ¨çľģ": 3481,
      "æīĭæ®µ": 3482,
      "èĲĦ": 3483,
      "åĩĨç¡®": 3484,
      "55": 3485,
      "IS": 3486,
      "ĠF": 3487,
      "è¾ĸ": 3488,
      "èı²": 3489,
      "ĠH": 3490,
      "æĹ¥èĩ³": 3491,
      "çĽ¸åĲĮ": 3492,
      "åĪ¶åĵģ": 3493,
      "æĬĢæľ¯çļĦ": 3494,
      "è¶³çĲĥ": 3495,
      "çŃīå¥ĸ": 3496,
      "èĢ¶": 3497,
      "åį³ä½¿": 3498,
      "ä¸»ä½ĵ": 3499,
      "çĽĳæµĭ": 3500,
      "åıįæĺł": 3501,
      "åĲĽ": 3502,
      "åħ±åĴĮåĽ½": 3503,
      "å¤ļå°ĳ": 3504,
      "ç¨¿": 3505,
      "å½±çīĩ": 3506,
      "å¤§æķ°æį®": 3507,
      "èĻİ": 3508,
      "é¢ģ": 3509,
      "æľĢæĸ°": 3510,
      "åŁĥ": 3511,
      "åŃ¦åİĨ": 3512,
      "å¹¶åľ¨": 3513,
      "åįļçī©": 3514,
      "èĳ¡èĲĦ": 3515,
      "æ£ĭ": 3516,
      "è®¤å®ļ": 3517,
      "èį¯åĵģ": 3518,
      "æĸĩåŃ¦": 3519,
      "å®¤åĨħ": 3520,
      "è£ħå¤ĩ": 3521,
      "æĹħè¡Į": 3522,
      "éĶħ": 3523,
      "ä¸Ĭæ¶¨": 3524,
      "æĭľ": 3525,
      "èī²çļĦ": 3526,
      "st": 3527,
      "å°Ŀ": 3528,
      "èµĸ": 3529,
      "åĽŃåĮº": 3530,
      "44": 3531,
      "èĻ«": 3532,
      "åĨľæ°ĳ": 3533,
      "æĶ¯æĴĳ": 3534,
      "ç§¦": 3535,
      "èĩªæ²»": 3536,
      "LE": 3537,
      "Ġåľ¨": 3538,
      "è¿Ļä¹Ī": 3539,
      "æļĹ": 3540,
      "èĢģå¹´": 3541,
      "çļĦä¸Ģç§į": 3542,
      "åľ¨äºİ": 3543,
      "åıĳçĹħ": 3544,
      "å¿ĥçļĦ": 3545,
      "32": 3546,
      "æİĴæĶ¾": 3547,
      "ç¡ķå£«": 3548,
      "ç¾İä¸½": 3549,
      "éĻ·": 3550,
      "èĤ¡ç¥¨": 3551,
      "è§£åĨ³æĸ¹æ¡Ī": 3552,
      "åĪĽå»º": 3553,
      "çĲ´": 3554,
      "å°ĸ": 3555,
      "æŁĶ": 3556,
      "çº¿ä¸Ĭ": 3557,
      "å»ī": 3558,
      "éĥ½åľ¨": 3559,
      "éĺ²æŃ¢": 3560,
      "éĻķ": 3561,
      "åĪºæ¿Ģ": 3562,
      "è£ħç½®": 3563,
      "éļ¾ä»¥": 3564,
      "å¤§å¤ļæķ°": 3565,
      "æĦŁåĪ°": 3566,
      "ä¸ĢåĲį": 3567,
      "é¢ĨåŁŁçļĦ": 3568,
      "åĲİæĿ¥": 3569,
      "æĪĳæł¡": 3570,
      "æĭ¼": 3571,
      "å£°æĺİ": 3572,
      "æĳĨ": 3573,
      "ä¼Ļä¼´": 3574,
      "è§Ĵåº¦": 3575,
      "å¤ļæ¬¡": 3576,
      "çī©èģĶç½ĳ": 3577,
      "æķĪçĽĬ": 3578,
      "åģ¶": 3579,
      "ä¾ĿçĦ¶": 3580,
      "è²": 3581,
      "éŁ©åĽ½": 3582,
      "mm": 3583,
      "å¯¸": 3584,
      "æĥħç»ª": 3585,
      "æłĩå¿Ĺ": 3586,
      "äº§æĿĥ": 3587,
      "åı°æ¹¾": 3588,
      "å®īå¾½": 3589,
      "ä¸īå¹´": 3590,
      "æķ´åĲĪ": 3591,
      "éŀ": 3592,
      "ĠI": 3593,
      "çļĦå¿ĥ": 3594,
      "çļĦå¥½": 3595,
      "äººä½ĵ": 3596,
      "èµģ": 3597,
      "æįĲ": 3598,
      "ä¼ļåĳĺ": 3599,
      "æŁ±": 3600,
      "æł¹æľ¬": 3601,
      "æ¡Īä»¶": 3602,
      "ç§Łèµģ": 3603,
      "è¿Ī": 3604,
      "æĺ¯çĶ±": 3605,
      "åħ¬å®ī": 3606,
      "æ¬£": 3607,
      "ç¾İçļĦ": 3608,
      "åıĤèĢĥ": 3609,
      "å½ķåıĸ": 3610,
      "ed": 3611,
      "æ±¤": 3612,
      "æĢ»ä½ĵ": 3613,
      "å°¿": 3614,
      "åºĶæĢ¥": 3615,
      "çłĶç©¶éĻ¢": 3616,
      "åħ´è¶£": 3617,
      "åĨ³èµĽ": 3618,
      "å¥ı": 3619,
      "åĬĽåº¦": 3620,
      "æħĪ": 3621,
      "ä»£çĲĨ": 3622,
      "è°Ĳ": 3623,
      "ĠD": 3624,
      "ä¸įåĨį": 3625,
      "èĤºçĤİ": 3626,
      "çļĦçĥŃ": 3627,
      "åĢ¾": 3628,
      "äººçĶŁ": 3629,
      "åĬłä¸Ĭ": 3630,
      "å¸Ĥæ°ĳ": 3631,
      "2009": 3632,
      "PP": 3633,
      "å°º": 3634,
      "å°Ĩäºİ": 3635,
      "æ¬²": 3636,
      "èĥº": 3637,
      "è®©æĪĳä»¬": 3638,
      "åĩłä¸ª": 3639,
      "ç»´ä¿®": 3640,
      "çī©çĲĨ": 3641,
      "çīĪæĿĥ": 3642,
      "æĪĲçĨŁ": 3643,
      "ç®¡éģĵ": 3644,
      "é¢Ħç®Ĺ": 3645,
      "å¿«ä¹Ĳ": 3646,
      "æ¹ĸåĮĹ": 3647,
      "39": 3648,
      "äºĮåįģ": 3649,
      "è¿«": 3650,
      "æĩĤ": 3651,
      "æ§": 3652,
      "éĿ¢åĲĳ": 3653,
      "æĭįæĳĦ": 3654,
      "å·¡": 3655,
      "åīĳ": 3656,
      "è¯¦ç»Ĩ": 3657,
      "çī¢": 3658,
      "èĤĿ": 3659,
      "pp": 3660,
      "è°ĭ": 3661,
      "çĻ½çĻľé£İçļĦ": 3662,
      "ä»¿": 3663,
      "æĿľ": 3664,
      "ç¾İæľ¯": 3665,
      "ä¸ĵä¸ļçļĦ": 3666,
      "éĽ¶åĶ®": 3667,
      "åľºæīĢ": 3668,
      "æŀĦæĪĲ": 3669,
      "åºŁæ°´": 3670,
      "éĤĢè¯·": 3671,
      "åĮħåĲ«": 3672,
      "å·¥åİĤ": 3673,
      "æ°Ľ": 3674,
      "èķ": 3675,
      "æĬ¤çĲĨ": 3676,
      "æŃ»äº¡": 3677,
      "ãĢĭãĢĬ": 3678,
      "åĽ½åĨħå¤ĸ": 3679,
      "çĵ¶": 3680,
      "æ²³åĮĹ": 3681,
      "çĻ¾åĪĨçĤ¹": 3682,
      "åı¯éĿł": 3683,
      "æĢ»ç»ıçĲĨ": 3684,
      "å§Ķä¼ļ": 3685,
      "äºļæ´²": 3686,
      "åĽºå®ļ": 3687,
      "2008": 3688,
      "è¡¨æ¼Ķ": 3689,
      "ä¸ĢçĤ¹": 3690,
      "æĦıåĳ³çĿĢ": 3691,
      "å°±åı¯ä»¥": 3692,
      "æĢ»ç»ĵ": 3693,
      "å¤§èµĽ": 3694,
      "çĽ¸äºĴ": 3695,
      "åħ±æľī": 3696,
      "èī¾": 3697,
      "ç¬¬äºĶ": 3698,
      "æĶ¶çĽĬ": 3699,
      "èĩ´åĬĽäºİ": 3700,
      "è²Į": 3701,
      "å¼ķè¿Ľ": 3702,
      "ä¸ĵé¡¹": 3703,
      "è¿ĺè¦ģ": 3704,
      "æ¼ı": 3705,
      "åĪĽæĦı": 3706,
      "è§£éĩĬ": 3707,
      "åĲ«æľī": 3708,
      "çļĦä½ľçĶ¨": 3709,
      "çĶŁæ´»ä¸Ń": 3710,
      "åĩºçĶŁ": 3711,
      "è´«åĽ°": 3712,
      "èģĶèµĽ": 3713,
      "å¥¹çļĦ": 3714,
      "ä¹Łåľ¨": 3715,
      "ä¿¡çĶ¨": 3716,
      "å²ģçļĦ": 3717,
      "éĥ¨ç½²": 3718,
      "æĻĭ": 3719,
      "çī©çļĦ": 3720,
      "æ¡ĥ": 3721,
      "ä½ľä¸ļ": 3722,
      "èĽĭçĻ½": 3723,
      "Ġ-": 3724,
      "ä½©": 3725,
      "åŃĺåĤ¨": 3726,
      "ä¸ªçĻ¾åĪĨçĤ¹": 3727,
      "æīĭæľ¯": 3728,
      "åİŁæĸĻ": 3729,
      "åĪĨå¸ĥ": 3730,
      "å¦»": 3731,
      "é¸Ł": 3732,
      "èĶ¬": 3733,
      "æĬ±": 3734,
      "åįļçī©é¦Ĩ": 3735,
      "èĴ¸": 3736,
      "éģĩåĪ°": 3737,
      "å¯¹å¤ĸ": 3738,
      "åĵ²": 3739,
      "æĿ¥åĪ°": 3740,
      "åįĵ": 3741,
      "ä»¥åīį": 3742,
      "åľ°çĲĥ": 3743,
      "å±ķå¼Ģ": 3744,
      "æĮĸ": 3745,
      "è®¸åı¯": 3746,
      "ç»ıåħ¸": 3747,
      "äºĭé¡¹": 3748,
      "85": 3749,
      "Ġå¹´": 3750,
      "æ¸ħæ´ģ": 3751,
      "ç¦ıå»º": 3752,
      "è§Ĵèī²": 3753,
      "åľ¨æŃ¤": 3754,
      "æĸĩåŃĹ": 3755,
      "æµ·æ´ĭ": 3756,
      "å¿ł": 3757,
      "èĩ³å°ĳ": 3758,
      "æķ°æį®æĺ¾ç¤º": 3759,
      "å½¼": 3760,
      "ç§įæ¤į": 3761,
      "çĶŁéķ¿": 3762,
      "ä¸ĭéĿ¢": 3763,
      "å¹¿åľº": 3764,
      "é»İ": 3765,
      "äº§éĩı": 3766,
      "ä¿¡æģ¯åĮĸ": 3767,
      "æ©¡èĥ¶": 3768,
      "éĤ¦": 3769,
      "æ³¨éĩį": 3770,
      "æ£ĢéªĮ": 3771,
      "æī°": 3772,
      "46": 3773,
      "å·¥ä½ľäººåĳĺ": 3774,
      "çĹħæĥħ": 3775,
      "æĮĩæķ°": 3776,
      "èŀº": 3777,
      "å¼ķåıĳ": 3778,
      "ä»ªå¼ı": 3779,
      "ä¹ĥ": 3780,
      "ä¸ŃåŃ¦": 3781,
      "åŃĲçļĦ": 3782,
      "çĩ¥": 3783,
      "èĳ£äºĭéķ¿": 3784,
      "**": 3785,
      "çĶľ": 3786,
      "åĽ½å¤ĸ": 3787,
      "äºĭæĥħ": 3788,
      "èµ¶": 3789,
      "çĵ·": 3790,
      "å¿Ļ": 3791,
      "åģļåĩº": 3792,
      "å¸¦åĬ¨": 3793,
      "æľŁå¾ħ": 3794,
      "æĢĿèĢĥ": 3795,
      "å¤§ä¼Ĺ": 3796,
      "ç³»ç»ŁçļĦ": 3797,
      "å¤§åĬĽ": 3798,
      "åº¦çļĦ": 3799,
      "åįİä¸º": 3800,
      "åĽŀæĶ¶": 3801,
      "èħĶ": 3802,
      "å¹´åīį": 3803,
      "æĹ¶åĪ»": 3804,
      "äºĭåĬ¡": 3805,
      "ä½ıæĪ¿": 3806,
      "åŁºç¡Ģè®¾æĸ½": 3807,
      "æİĺ": 3808,
      "å¢ŀéĢŁ": 3809,
      "éŃĶ": 3810,
      "è¥¿å®ī": 3811,
      "æĦŁè°¢": 3812,
      "ä½¿åĳ½": 3813,
      "æŀĦå»º": 3814,
      "åĲĪéĩĳ": 3815,
      "æİ§èĤ¡": 3816,
      "æ£®æŀĹ": 3817,
      "ç§Ĵ": 3818,
      "æµģç¨ĭ": 3819,
      "é¡¹çĽ®çļĦ": 3820,
      "æĤ¬": 3821,
      "åĴĮç¤¾ä¼ļ": 3822,
      "id": 3823,
      "åĲ«éĩı": 3824,
      "he": 3825,
      "ä¸ŃåĽ½çļĦ": 3826,
      "èĤł": 3827,
      "åŁºå±Ĥ": 3828,
      "éĽĨä½ĵ": 3829,
      "å®ļä½į": 3830,
      "åĳ¨è¾¹": 3831,
      "ç¦»å¼Ģ": 3832,
      "çİĽ": 3833,
      "æİĪæĿĥ": 3834,
      "400": 3835,
      "ä¸ĵéĹ¨": 3836,
      "æĽ´æĸ°": 3837,
      "ç»ĦåĲĪ": 3838,
      "è¡ĮçļĦ": 3839,
      "å±ķçİ°": 3840,
      "çĵľ": 3841,
      "åĲĦå¤§": 3842,
      "éĩĳé¢Ŀ": 3843,
      "æĬĳ": 3844,
      "é«ĺä¸Ń": 3845,
      "ç«¹": 3846,
      "æ»¡æĦı": 3847,
      "ä¸įèī¯": 3848,
      "åĪ«äºº": 3849,
      "ä¸Ģè·¯": 3850,
      "äººæ°ĳåħ±åĴĮåĽ½": 3851,
      "å¹´åºķ": 3852,
      "çº¹": 3853,
      "æıĴ": 3854,
      "ä¸Ģèĩ´": 3855,
      "å®¡æŁ¥": 3856,
      "49": 3857,
      "èī°": 3858,
      "æıĲåīį": 3859,
      "88": 3860,
      "åĬ²": 3861,
      "è¡¨æĺİ": 3862,
      "äºİæĺ¯": 3863,
      "åĪĨç±»": 3864,
      "ä¸»åĬŀ": 3865,
      "èĦı": 3866,
      "åį«æĺŁ": 3867,
      "çļĦåīį": 3868,
      "æĢģåº¦": 3869,
      "æŃ£æĺ¯": 3870,
      "åĽ½å®¶çº§": 3871,
      "æĪ¿å±ĭ": 3872,
      "ä¸Ńåįİäººæ°ĳåħ±åĴĮåĽ½": 3873,
      "æĽ´å¥½çļĦ": 3874,
      "ä¸»è¦ģæĺ¯": 3875,
      "çļĦäºĭæĥħ": 3876,
      "æ¶ĤæĸĻ": 3877,
      "ä¼ļæľī": 3878,
      "é«ĺè´¨éĩı": 3879,
      "ä¸Ģæĺ¯": 3880,
      "éģĵå¾·": 3881,
      "ç±»ä¼¼": 3882,
      "æĻ®éģį": 3883,
      "èĸª": 3884,
      "!âĢĿ": 3885,
      "æĭĵå±ķ": 3886,
      "çĶµåķĨ": 3887,
      "ç¡ħ": 3888,
      "çļĦè¦ģæ±Ĥ": 3889,
      "å¤Ħç½ļ": 3890,
      "æķĻèĤ²éĥ¨": 3891,
      "çļĦæ°´": 3892,
      "å¯¿åĳ½": 3893,
      "ä»Ļ": 3894,
      "ä¸ĢæĿ¡": 3895,
      "åľ°çĤ¹": 3896,
      "æī«": 3897,
      "åĩī": 3898,
      "éĿ¢è¯ķ": 3899,
      "æ´»æĢ§": 3900,
      "æºª": 3901,
      "åŁ¹èĤ²": 3902,
      "åħ¶å®ĥ": 3903,
      "çłĶç©¶æīĢ": 3904,
      "è¡¥åħħ": 3905,
      "ãģ": 3906,
      "èĩªè¡Į": 3907,
      "çĪ¸": 3908,
      "æ¼Ķåĳĺ": 3909,
      "éĶ¦": 3910,
      "ä¼¼ä¹İ": 3911,
      "ter": 3912,
      "ĠE": 3913,
      "éĥģ": 3914,
      "å¦Ļ": 3915,
      "æĳĦå½±": 3916,
      "æĹ¶çļĦ": 3917,
      "éĢĨ": 3918,
      "ä¼ĺæĥł": 3919,
      "åĩĢåĪ©æ¶¦": 3920,
      "æŃ¤åīį": 3921,
      "ä¸Ģå¤©": 3922,
      "åĽ½æľī": 3923,
      "ä¼ĳéĹ²": 3924,
      "æľŁçļĦ": 3925,
      "åł¡": 3926,
      "å°ıåŃ¦": 3927,
      "èĤ¡æĿĥ": 3928,
      "çĶŁç´ł": 3929,
      "ä¸¤ç§į": 3930,
      "76": 3931,
      "å¤©æ°Ķ": 3932,
      "æĬķèµĦèĢħ": 3933,
      "æĪĲåĪĨ": 3934,
      "ä¿¡å¿ĥ": 3935,
      "èĭ¹": 3936,
      "åĭŁ": 3937,
      "ä¹¡æĿĳ": 3938,
      "èħĲèļĢ": 3939,
      "ä¹Łå°±æĺ¯": 3940,
      "ç¼ºä¹ı": 3941,
      "å°±åĥı": 3942,
      "çĸĨ": 3943,
      "æĿ¡ä¾ĭ": 3944,
      "é¢Ħæµĭ": 3945,
      "éĤ»": 3946,
      "è¯ļä¿¡": 3947,
      "å¾ĹåĪ°äºĨ": 3948,
      "çļĦæĸ¹æ³ķ": 3949,
      "åĽ¾ä¹¦": 3950,
      "ä¸Ģæµģ": 3951,
      "ä¸»å¸Ń": 3952,
      "åı¥è¯Ŀ": 3953,
      "æĶ¶è´Ń": 3954,
      "æĬ«": 3955,
      "å¾Īå¤ļäºº": 3956,
      "æ°Ķä½ĵ": 3957,
      "æ·±åº¦": 3958,
      "è®ºåĿĽ": 3959,
      "ot": 3960,
      "è®¤åı¯": 3961,
      "æĶ¾åľ¨": 3962,
      "æľīä¸Ģä¸ª": 3963,
      "åħħçĶµ": 3964,
      "æīĢè°ĵ": 3965,
      "ä¿¡åı·": 3966,
      "ad": 3967,
      "ĠW": 3968,
      "å¿½": 3969,
      "æ»¨": 3970,
      "è§ĦåĪĻ": 3971,
      "æĢ»æĺ¯": 3972,
      "æĪĲå°±": 3973,
      "å¸¦é¢Ĩ": 3974,
      "æ¯ıä¸Ģä¸ª": 3975,
      "æıĲäº¤": 3976,
      "éħįç½®": 3977,
      "èµ¢å¾Ĺ": 3978,
      "è§Ħå®ļçļĦ": 3979,
      "å®¶çļĦ": 3980,
      "èĭ¹æŀľ": 3981,
      "æ¸ħæ¥ļ": 3982,
      "æĺ¾èĳĹ": 3983,
      "äººçī©": 3984,
      "éĺĶ": 3985,
      "ä¸»ç®¡éĥ¨éĹ¨": 3986,
      "æĿŃå·ŀ": 3987,
      "è¡¥è´´": 3988,
      "ä»ªåĻ¨": 3989,
      "ä¼ĺåħĪ": 3990,
      "åĬŀåŃ¦": 3991,
      "ç¢İ": 3992,
      "æ¹ĸåįĹ": 3993,
      "æĺ¯ä¸ŃåĽ½": 3994,
      "åĬłåĿ¡": 3995,
      "åĲĦçº§": 3996,
      "å¸¦æĿ¥çļĦ": 3997,
      "çºªå¿µ": 3998,
      "è½¨éģĵ": 3999,
      "å¿§": 4000,
      "éĺĢ": 4001,
      "ç¼Ŀ": 4002,
      "å·®å¼Ĥ": 4003,
      "èĴĤ": 4004,
      "çļĦéľĢæ±Ĥ": 4005,
      "ä¸įéĶĪ": 4006,
      "å·¥åķĨ": 4007,
      "åı¯æĮģç»Ń": 4008,
      "é»Ħéĩĳ": 4009,
      "èĬ¯çīĩ": 4010,
      "ä¼ļåľ¨": 4011,
      "æĭĨ": 4012,
      "ä¸ĬäºĨ": 4013,
      "è½¬åıĺ": 4014,
      "äººå·¥æĻºèĥ½": 4015,
      "åĩ½": 4016,
      "600": 4017,
      "åįµ": 4018,
      "éļľç¢į": 4019,
      "è¡Ģç®¡": 4020,
      "ä¸Ģä»£": 4021,
      "äº§èĥ½": 4022,
      "æ··åĲĪ": 4023,
      "æĹħå®¢": 4024,
      "åĲ¸æĶ¶": 4025,
      "æ·»åĬł": 4026,
      "åĨĴ": 4027,
      "çº¤ç»´": 4028,
      "çļĦä¸Ń": 4029,
      "æĹģ": 4030,
      "çºµ": 4031,
      "åħģ": 4032,
      "å¯¹æŃ¤": 4033,
      "äºĴåĬ¨": 4034,
      "åįłæ¯Ķ": 4035,
      "å±ĳ": 4036,
      "æµ¦": 4037,
      "åĩłå¹´": 4038,
      "å¾Īå¤§çļĦ": 4039,
      "æµģéĩı": 4040,
      "ç¬¬ä¸Ģæ¬¡": 4041,
      "å°ıçļĦ": 4042,
      "èį£èªī": 4043,
      "ä¸įéĶĪéĴ¢": 4044,
      "å·¥ç¨ĭå¸Ī": 4045,
      "æĸ°åĬłåĿ¡": 4046,
      "éķ¿çļĦ": 4047,
      "åĲįåįķ": 4048,
      "åħļçļĦ": 4049,
      "åĹ": 4050,
      "çļĦä¸ĵä¸ļ": 4051,
      "åĴĮè°Ĳ": 4052,
      "âĢĿ(": 4053,
      "ä¹ĭä¸Ń": 4054,
      "å¾Īéļ¾": 4055,
      "çļĦæĥħåĨµä¸ĭ": 4056,
      "ĠN": 4057,
      "æĺ¯ä¸į": 4058,
      "æµģåĬ¨": 4059,
      "è¥¿çľģ": 4060,
      "èħ¹": 4061,
      "å¹¶æ²¡æľī": 4062,
      "å¤ļåħĥ": 4063,
      "ä¸ĢæĹ¦": 4064,
      "åıĳåĬ¨": 4065,
      "çŃīåľ°": 4066,
      "åŁºåĽł": 4067,
      "ä»¥ä¸ĭç®Ģç§°": 4068,
      "é«ĺæ¸©": 4069,
      "çł´åĿı": 4070,
      "è¾½": 4071,
      "å¤įåĲĪ": 4072,
      "å¥ĸåĬ±": 4073,
      "é¼»": 4074,
      "ç»Īäºİ": 4075,
      "çļĨ": 4076,
      "å½¹": 4077,
      "é¤Ĳé¥®": 4078,
      "å¤§å¤§": 4079,
      "æīĢå¾Ĺ": 4080,
      "æ¸ħæ´Ĺ": 4081,
      "2007": 4082,
      "éĺ³åħī": 4083,
      "éĺ¿éĩĮ": 4084,
      "æĺ¨": 4085,
      "çī§": 4086,
      "å´ĩ": 4087,
      "å°±èĥ½": 4088,
      "çĸ«æĥħéĺ²æİ§": 4089,
      "ç¡®è®¤": 4090,
      "å·¨å¤§": 4091,
      "ay": 4092,
      "æĦıå¤§åĪ©": 4093,
      "èĥĨ": 4094,
      "äºĮæĺ¯": 4095
    },
    "merges": [
      [
        "ä",
        "¸"
      ],
      [
        "ã",
        "Ģ"
      ],
      [
        "ç",
        "ļ"
      ],
      [
        "çļ",
        "Ħ"
      ],
      [
        "ä",
        "º"
      ],
      [
        "æ",
        "ľ"
      ],
      [
        "å",
        "ı"
      ],
      [
        "ãĢ",
        "Ĥ"
      ],
      [
        "å",
        "ħ"
      ],
      [
        "ä",
        "»"
      ],
      [
        "å",
        "¤"
      ],
      [
        "ãĢ",
        "ģ"
      ],
      [
        "å",
        "®"
      ],
      [
        "å",
        "Ī"
      ],
      [
        "è",
        "¿"
      ],
      [
        "å",
        "ľ"
      ],
      [
        "ä",
        "½"
      ],
      [
        "ç",
        "Ķ"
      ],
      [
        "å",
        "Ĳ"
      ],
      [
        "å",
        "Ĭ"
      ],
      [
        "æ",
        "ĺ"
      ],
      [
        "ç",
        "»"
      ],
      [
        "å",
        "Ľ"
      ],
      [
        "æ",
        "Ī"
      ],
      [
        "å",
        "¹"
      ],
      [
        "æ",
        "ĸ"
      ],
      [
        "ä",
        "¼"
      ],
      [
        "â",
        "Ģ"
      ],
      [
        "æ",
        "Ĺ"
      ],
      [
        "ä",
        "¹"
      ],
      [
        "è",
        "®"
      ],
      [
        "ä¸",
        "Ģ"
      ],
      [
        "å",
        "į"
      ],
      [
        "å",
        "Ń"
      ],
      [
        "è",
        "¯"
      ],
      [
        "å",
        "°"
      ],
      [
        "æĺ",
        "¯"
      ],
      [
        "å",
        "·"
      ],
      [
        "åľ",
        "¨"
      ],
      [
        "å",
        "¸"
      ],
      [
        "æ",
        "Ŀ"
      ],
      [
        "æľ",
        "ī"
      ],
      [
        "é",
        "ĩ"
      ],
      [
        "å",
        "Į"
      ],
      [
        "å",
        "º"
      ],
      [
        "äº",
        "º"
      ],
      [
        "ä¸",
        "Ń"
      ],
      [
        "å",
        "¼"
      ],
      [
        "æ",
        "ī"
      ],
      [
        "è",
        "¡"
      ],
      [
        "é",
        "Ģ"
      ],
      [
        "å",
        "Ĵ"
      ],
      [
        "å",
        "Ĩ"
      ],
      [
        "è",
        "Ģ"
      ],
      [
        "ç",
        "Ľ"
      ],
      [
        "ä¸",
        "º"
      ],
      [
        "å",
        "ĩ"
      ],
      [
        "ä¸",
        "į"
      ],
      [
        "åĴ",
        "Į"
      ],
      [
        "æ",
        "Ĭ"
      ],
      [
        "æ",
        "ķ"
      ],
      [
        "å",
        "±"
      ],
      [
        "äº",
        "Ĩ"
      ],
      [
        "å",
        "¯"
      ],
      [
        "å",
        "¾"
      ],
      [
        "ä¸",
        "ļ"
      ],
      [
        "è",
        "´"
      ],
      [
        "æ",
        "ł"
      ],
      [
        "åĽ",
        "½"
      ],
      [
        "å¤",
        "§"
      ],
      [
        "ĥ",
        "½"
      ],
      [
        "å¹",
        "´"
      ],
      [
        "ç",
        "§"
      ],
      [
        "è",
        "µ"
      ],
      [
        "è",
        "§"
      ],
      [
        "ç",
        "İ"
      ],
      [
        "é",
        "Ļ"
      ],
      [
        "æ",
        "°"
      ],
      [
        "ç",
        "ī"
      ],
      [
        "æ",
        "Ģ"
      ],
      [
        "æ",
        "Ķ"
      ],
      [
        "çĶ",
        "Ł"
      ],
      [
        "ä»",
        "¥"
      ],
      [
        "åŃ",
        "¦"
      ],
      [
        "åı",
        "ĳ"
      ],
      [
        "ç",
        "º"
      ],
      [
        "âĢ",
        "ľ"
      ],
      [
        "âĢ",
        "Ŀ"
      ],
      [
        "å",
        "İ"
      ],
      [
        "å",
        "¥"
      ],
      [
        "ç",
        "Ń"
      ],
      [
        "å",
        "½"
      ],
      [
        "è",
        "ĩ"
      ],
      [
        "å",
        "¿"
      ],
      [
        "ä¸",
        "Ĭ"
      ],
      [
        "çĶ",
        "¨"
      ],
      [
        "ä",
        "¿"
      ],
      [
        "æ",
        "Ń"
      ],
      [
        "ç",
        "Ĳ"
      ],
      [
        "ä¼",
        "ļ"
      ],
      [
        "é",
        "Ĺ"
      ],
      [
        "æ",
        "³"
      ],
      [
        "å",
        "ĳ"
      ],
      [
        "å·",
        "¥"
      ],
      [
        "æ",
        "µ"
      ],
      [
        "æ",
        "İ"
      ],
      [
        "é",
        "Ŀ"
      ],
      [
        "ä¸",
        "ª"
      ],
      [
        "è",
        "ĥ½"
      ],
      [
        "¦",
        "ģ"
      ],
      [
        "æĹ",
        "¶"
      ],
      [
        "è¡",
        "Į"
      ],
      [
        "è",
        "¦ģ"
      ],
      [
        "ä½",
        "ľ"
      ],
      [
        "æĪ",
        "Ĳ"
      ],
      [
        "å",
        "ĵ"
      ],
      [
        "æ",
        "ŀ"
      ],
      [
        "åħ",
        "¬"
      ],
      [
        "å",
        "Ł"
      ],
      [
        "äº",
        "İ"
      ],
      [
        "é",
        "¢"
      ],
      [
        "è¿",
        "Ļ"
      ],
      [
        "æ",
        "¯"
      ],
      [
        "è",
        "¾"
      ],
      [
        "æĪ",
        "ĳ"
      ],
      [
        "2",
        "0"
      ],
      [
        "æ",
        "²"
      ],
      [
        "è",
        "½"
      ],
      [
        "åĪ",
        "°"
      ],
      [
        "å¯",
        "¹"
      ],
      [
        "åľ",
        "°"
      ],
      [
        "å®",
        "¶"
      ],
      [
        "æĿ",
        "¥"
      ],
      [
        "äº",
        "§"
      ],
      [
        "æ",
        "ĭ"
      ],
      [
        "åĩ",
        "º"
      ],
      [
        "åı",
        "¯"
      ],
      [
        "æ",
        "±"
      ],
      [
        "å",
        "ī"
      ],
      [
        "æ",
        "Į"
      ],
      [
        "çĲ",
        "Ĩ"
      ],
      [
        "é",
        "ĺ"
      ],
      [
        "é",
        "«"
      ],
      [
        "ç",
        "ľ"
      ],
      [
        "é«",
        "ĺ"
      ],
      [
        "çŃ",
        "ī"
      ],
      [
        "ç",
        "«"
      ],
      [
        "å¤",
        "ļ"
      ],
      [
        "åĪ",
        "Ĩ"
      ],
      [
        "æĸ",
        "°"
      ],
      [
        "å¸",
        "Ĥ"
      ],
      [
        "æ",
        "¸"
      ],
      [
        "ç",
        "®"
      ],
      [
        "ä»",
        "¬"
      ],
      [
        "æ",
        "ĥ"
      ],
      [
        "åĬ",
        "¨"
      ],
      [
        "ä",
        "¾"
      ],
      [
        "åħ",
        "¨"
      ],
      [
        "ç",
        "½"
      ],
      [
        "è¿",
        "Ľ"
      ],
      [
        "æĸ",
        "¹"
      ],
      [
        "ç»",
        "ı"
      ],
      [
        "è",
        "Ĥ"
      ],
      [
        "åĮ",
        "ĸ"
      ],
      [
        "æ",
        "´"
      ],
      [
        "ä¸",
        "İ"
      ],
      [
        "æ",
        "Ħ"
      ],
      [
        "å",
        "»"
      ],
      [
        "é",
        "ķ"
      ],
      [
        "æĹ",
        "¥"
      ],
      [
        "èĩ",
        "ª"
      ],
      [
        "è¿",
        "ĩ"
      ],
      [
        "åĲ",
        "Ī"
      ],
      [
        "çİ",
        "°"
      ],
      [
        "é",
        "ĥ"
      ],
      [
        "æ",
        "¬"
      ],
      [
        "ä½",
        "ĵ"
      ],
      [
        "åĬ",
        "Ľ"
      ],
      [
        "åĵ",
        "ģ"
      ],
      [
        "æľ",
        "º"
      ],
      [
        "ç",
        "¨"
      ],
      [
        "åĲ",
        "Į"
      ],
      [
        "ä¸",
        "ĭ"
      ],
      [
        "å®",
        "ŀ"
      ],
      [
        "æľ",
        "Ī"
      ],
      [
        "å±",
        "ķ"
      ],
      [
        "é",
        "¡"
      ],
      [
        "ä¹",
        "Ł"
      ],
      [
        "æ",
        "ı"
      ],
      [
        "åĲ",
        "İ"
      ],
      [
        "å¼",
        "Ģ"
      ],
      [
        "å»",
        "º"
      ],
      [
        "ä»",
        "ĸ"
      ],
      [
        "è®",
        "¾"
      ],
      [
        "éĥ",
        "¨"
      ],
      [
        "é",
        "ģ"
      ],
      [
        "è",
        "ģ"
      ],
      [
        "éĿ",
        "¢"
      ],
      [
        "å®",
        "ļ"
      ],
      [
        "å",
        "¢"
      ],
      [
        "æľ",
        "¬"
      ],
      [
        "çĶ",
        "µ"
      ],
      [
        "æ",
        "Ľ"
      ],
      [
        "åı",
        "Ĭ"
      ],
      [
        "å",
        "¦"
      ],
      [
        "æĢ",
        "§"
      ],
      [
        "ä¸",
        "»"
      ],
      [
        "åĬ",
        "¡"
      ],
      [
        "åħ",
        "¶"
      ],
      [
        "é",
        "Ľ"
      ],
      [
        "æ³",
        "ķ"
      ],
      [
        "ä¹",
        "ĭ"
      ],
      [
        "é",
        "£"
      ],
      [
        "å",
        "ģ"
      ],
      [
        "éķ",
        "¿"
      ],
      [
        "å°",
        "±"
      ],
      [
        "åĬ",
        "ł"
      ],
      [
        "ç",
        "¤"
      ],
      [
        "ç",
        "¬"
      ],
      [
        "èµ",
        "Ħ"
      ],
      [
        "è",
        "ī"
      ],
      [
        "éĩ",
        "į"
      ],
      [
        "èĢ",
        "ħ"
      ],
      [
        "åº",
        "¦"
      ],
      [
        "éĢ",
        "ļ"
      ],
      [
        "æ",
        "į"
      ],
      [
        "è",
        "¶"
      ],
      [
        "èĢ",
        "Į"
      ],
      [
        "æ",
        "Ļ"
      ],
      [
        "è",
        "·"
      ],
      [
        "ç",
        "Ĥ"
      ],
      [
        "åħ",
        "³"
      ],
      [
        "åĮ",
        "º"
      ],
      [
        "å¿",
        "ĥ"
      ],
      [
        "ç",
        "Ļ"
      ],
      [
        "åı",
        "¸"
      ],
      [
        "åľ",
        "º"
      ],
      [
        "æ°",
        "´"
      ],
      [
        "ç",
        "Ł"
      ],
      [
        "æı",
        "Ĳ"
      ],
      [
        "åī",
        "į"
      ],
      [
        "å¾",
        "Ĺ"
      ],
      [
        "ç",
        "¾"
      ],
      [
        "åĨ",
        "ħ"
      ],
      [
        "åĪ",
        "¶"
      ],
      [
        "å",
        "Ŀ"
      ],
      [
        "éĩ",
        "ı"
      ],
      [
        "å°",
        "Ĩ"
      ],
      [
        "æī",
        "Ģ"
      ],
      [
        "è",
        "°"
      ],
      [
        "ç®",
        "¡"
      ],
      [
        "ç",
        "ł"
      ],
      [
        "åħ¬",
        "åı¸"
      ],
      [
        "æ",
        "¶"
      ],
      [
        "æĬ",
        "Ģ"
      ],
      [
        "çĽ",
        "®"
      ],
      [
        "åŃ",
        "Ĳ"
      ],
      [
        "åº",
        "Ķ"
      ],
      [
        "å¥",
        "½"
      ],
      [
        "çī",
        "©"
      ],
      [
        "ç",
        "³"
      ],
      [
        "æĸ",
        "ĩ"
      ],
      [
        "ç",
        "©"
      ],
      [
        "æľ",
        "Ģ"
      ],
      [
        "æķ",
        "Ļ"
      ],
      [
        "ä½",
        "į"
      ],
      [
        "äº",
        "ĭ"
      ],
      [
        "è®",
        "¡"
      ],
      [
        "ä¿",
        "Ŀ"
      ],
      [
        "éĹ",
        "´"
      ],
      [
        "å¦",
        "Ĥ"
      ],
      [
        "ç¨",
        "ĭ"
      ],
      [
        "è",
        "Ĭ"
      ],
      [
        "æľ",
        "¯"
      ],
      [
        "è",
        "Ĳ"
      ],
      [
        "åĳ",
        "ĺ"
      ],
      [
        "é",
        "ļ"
      ],
      [
        "å°",
        "ı"
      ],
      [
        "é",
        "ĥ½"
      ],
      [
        "ç",
        "ĸ"
      ],
      [
        "æ¯",
        "Ķ"
      ],
      [
        "å",
        "Ģ"
      ],
      [
        "ç",
        "Ŀ"
      ],
      [
        "æľ",
        "Ł"
      ],
      [
        "åħ",
        "¥"
      ],
      [
        "çĽ",
        "¸"
      ],
      [
        "å",
        "§"
      ],
      [
        "ç¬",
        "¬"
      ],
      [
        "å¤",
        "ĸ"
      ],
      [
        "å¹",
        "¶"
      ],
      [
        "å¤",
        "©"
      ],
      [
        "ç³",
        "»"
      ],
      [
        "æ",
        "Ł"
      ],
      [
        "ç§",
        "į"
      ],
      [
        "é",
        "ħ"
      ],
      [
        "ç",
        "±"
      ],
      [
        "0",
        "0"
      ],
      [
        "éĩ",
        "ĳ"
      ],
      [
        "ç",
        "ķ"
      ],
      [
        "ç§",
        "ĳ"
      ],
      [
        "20",
        "1"
      ],
      [
        "æķ",
        "°"
      ],
      [
        "åĲ",
        "į"
      ],
      [
        "ç",
        "Ĺ"
      ],
      [
        "è¡",
        "¨"
      ],
      [
        "ä¿",
        "¡"
      ],
      [
        "åĽ",
        "ł"
      ],
      [
        "é",
        "ľ"
      ],
      [
        "ãĢ",
        "ĭ"
      ],
      [
        "ä¼",
        "ģ"
      ],
      [
        "åħ",
        "ĥ"
      ],
      [
        "ç½",
        "ĳ"
      ],
      [
        "ãĢ",
        "Ĭ"
      ],
      [
        "å¹",
        "³"
      ],
      [
        "æĥ",
        "ħ"
      ],
      [
        "æĽ",
        "´"
      ],
      [
        "çĤ",
        "¹"
      ],
      [
        "æ",
        "ģ"
      ],
      [
        "é",
        "Ķ"
      ],
      [
        "å®",
        "ī"
      ],
      [
        "ä»",
        "İ"
      ],
      [
        "åıĳ",
        "å±ķ"
      ],
      [
        "ä¸",
        "ī"
      ],
      [
        "å½",
        "ĵ"
      ],
      [
        "ç",
        "ĥ"
      ],
      [
        "ä¸Ń",
        "åĽ½"
      ],
      [
        "ç",
        "Ħ"
      ],
      [
        "æĪĳ",
        "ä»¬"
      ],
      [
        "è½",
        "¦"
      ],
      [
        "è¯",
        "´"
      ],
      [
        "ç¾",
        "İ"
      ],
      [
        "åĪ",
        "©"
      ],
      [
        "ç",
        "¡"
      ],
      [
        "ä¸",
        "ĵ"
      ],
      [
        "æ°",
        "ĳ"
      ],
      [
        "ä¼ģ",
        "ä¸ļ"
      ],
      [
        "æ¬",
        "¡"
      ],
      [
        "å·¥",
        "ä½ľ"
      ],
      [
        "é",
        "ĵ"
      ],
      [
        "æ´",
        "»"
      ],
      [
        "éģ",
        "ĵ"
      ],
      [
        "è´",
        "¨"
      ],
      [
        "åŁ",
        "º"
      ],
      [
        "è¿",
        "ĺ"
      ],
      [
        "é¡",
        "¹"
      ],
      [
        "æĶ",
        "¿"
      ],
      [
        "ç",
        "´"
      ],
      [
        "æĦ",
        "ı"
      ],
      [
        "æĺ",
        "İ"
      ],
      [
        "å¼",
        "ı"
      ],
      [
        "è",
        "ĭ"
      ],
      [
        "æŃ",
        "¤"
      ],
      [
        "çī",
        "¹"
      ],
      [
        "ä½",
        "¿"
      ],
      [
        "éĻ",
        "¢"
      ],
      [
        "å",
        "ķ"
      ],
      [
        "æľ",
        "į"
      ],
      [
        "æį",
        "®"
      ],
      [
        "æĪ",
        "ĸ"
      ],
      [
        "åĲ",
        "Ħ"
      ],
      [
        "è§",
        "Ħ"
      ],
      [
        "é",
        "¦"
      ],
      [
        "ä»",
        "£"
      ],
      [
        "ç",
        "²"
      ],
      [
        "ä¸Ģ",
        "ä¸ª"
      ],
      [
        "çĿ",
        "Ģ"
      ],
      [
        "æĹ",
        "ł"
      ],
      [
        "è",
        "Ī"
      ],
      [
        "ç",
        "¥"
      ],
      [
        "æł",
        "ĩ"
      ],
      [
        "ä½",
        "Ĩ"
      ],
      [
        "å¢",
        "ŀ"
      ],
      [
        "çĦ",
        "¶"
      ],
      [
        "æ",
        "¡"
      ],
      [
        "å¸",
        "¸"
      ],
      [
        "æ",
        "·"
      ],
      [
        "çł",
        "Ķ"
      ],
      [
        "æ",
        "º"
      ],
      [
        "ä¸",
        "ĩ"
      ],
      [
        "èµ",
        "·"
      ],
      [
        "å",
        "ŀ"
      ],
      [
        "é£",
        "İ"
      ],
      [
        "å¾",
        "Ī"
      ],
      [
        "åĪ",
        "Ľ"
      ],
      [
        "å",
        "£"
      ],
      [
        "éĩ",
        "Į"
      ],
      [
        "Ĥ",
        "£"
      ],
      [
        "è",
        "į"
      ],
      [
        "è",
        "ĥ"
      ],
      [
        "æŀ",
        "ľ"
      ],
      [
        "æŃ",
        "£"
      ],
      [
        "çĶ",
        "±"
      ],
      [
        "æĬĢ",
        "æľ¯"
      ],
      [
        "åķ",
        "Ĩ"
      ],
      [
        "å¼",
        "º"
      ],
      [
        "é",
        "Ĵ"
      ],
      [
        "æĬ",
        "¥"
      ],
      [
        "æĮ",
        "ģ"
      ],
      [
        "ç»",
        "Ł"
      ],
      [
        "è",
        "¢"
      ],
      [
        "ä»",
        "¶"
      ],
      [
        "ç",
        "¼"
      ],
      [
        "éĢ",
        "ł"
      ],
      [
        "åı¯",
        "ä»¥"
      ],
      [
        "å¤",
        "Ħ"
      ],
      [
        "è¿",
        "Ĳ"
      ],
      [
        "çº",
        "§"
      ],
      [
        "äº",
        "¤"
      ],
      [
        "å·",
        "²"
      ],
      [
        "æł",
        "¡"
      ],
      [
        "éĽ",
        "Ĩ"
      ],
      [
        "è§",
        "£"
      ],
      [
        "èĩ",
        "³"
      ],
      [
        "æµ",
        "·"
      ],
      [
        "äº",
        "Ľ"
      ],
      [
        "ç»",
        "Ħ"
      ],
      [
        "æ±",
        "Ĥ"
      ],
      [
        "è·",
        "¯"
      ],
      [
        "åħ",
        "·"
      ],
      [
        "æĶ",
        "¶"
      ],
      [
        "ç»",
        "ĵ"
      ],
      [
        "ç",
        "ģ"
      ],
      [
        "åį",
        "ķ"
      ],
      [
        "éľ",
        "Ģ"
      ],
      [
        "ç«",
        "ĭ"
      ],
      [
        "äº",
        "Į"
      ],
      [
        "è",
        "¥"
      ],
      [
        "æµ",
        "ģ"
      ],
      [
        "ä»",
        "»"
      ],
      [
        "èĤ",
        "²"
      ],
      [
        "æĢ",
        "»"
      ],
      [
        "çº",
        "¿"
      ],
      [
        "æİ",
        "¥"
      ],
      [
        "å¯",
        "¼"
      ],
      [
        "æľį",
        "åĬ¡"
      ],
      [
        "çľ",
        "ĭ"
      ],
      [
        "æī",
        "ĭ"
      ],
      [
        "éĹ",
        "¨"
      ],
      [
        "è¥",
        "¿"
      ],
      [
        "é",
        "ª"
      ],
      [
        "åŀ",
        "ĭ"
      ],
      [
        "è¾",
        "¾"
      ],
      [
        "åŁ",
        "İ"
      ],
      [
        "é¢",
        "ĺ"
      ],
      [
        "èģ",
        "Ķ"
      ],
      [
        "ä¼",
        "ł"
      ],
      [
        "è¢",
        "«"
      ],
      [
        "ç¤",
        "º"
      ],
      [
        "æ°",
        "Ķ"
      ],
      [
        "åı",
        "Ĺ"
      ],
      [
        "çľ",
        "ģ"
      ],
      [
        "åĲ",
        "ĳ"
      ],
      [
        "æł",
        "¼"
      ],
      [
        "ä¸",
        "ľ"
      ],
      [
        "ç",
        "Ī"
      ],
      [
        "çĹ",
        "ħ"
      ],
      [
        "çĲ",
        "ĥ"
      ],
      [
        "æ",
        "»"
      ],
      [
        "åį",
        "Ĺ"
      ],
      [
        "ç®¡",
        "çĲĨ"
      ],
      [
        "å½",
        "±"
      ],
      [
        "çİ",
        "¯"
      ],
      [
        "å¸",
        "Ī"
      ],
      [
        "é",
        "©"
      ],
      [
        "åĮ",
        "»"
      ],
      [
        "æº",
        "Ĳ"
      ],
      [
        "åİ",
        "Ł"
      ],
      [
        "ä¾",
        "Ľ"
      ],
      [
        "å¹",
        "¿"
      ],
      [
        "è",
        "İ"
      ],
      [
        "ç¤",
        "¾"
      ],
      [
        "è",
        "º"
      ],
      [
        "èĲ",
        "¥"
      ],
      [
        "è",
        "£"
      ],
      [
        "è¿Ľ",
        "è¡Į"
      ],
      [
        "æ¸",
        "¸"
      ],
      [
        "ä½",
        "ł"
      ],
      [
        "èī",
        "²"
      ],
      [
        "å¤",
        "ĩ"
      ],
      [
        "å",
        "ĸ"
      ],
      [
        "åİ",
        "»"
      ],
      [
        "è",
        "Į"
      ],
      [
        "çŁ",
        "¥"
      ],
      [
        "åį",
        "ģ"
      ],
      [
        "æĦ",
        "Ł"
      ],
      [
        "åħ",
        "±"
      ],
      [
        "äº§",
        "åĵģ"
      ],
      [
        "æķ",
        "Ī"
      ],
      [
        "æĸ",
        "Ļ"
      ],
      [
        "åĽ",
        "¢"
      ],
      [
        "ä¸",
        "¤"
      ],
      [
        "èº",
        "«"
      ],
      [
        "åģ",
        "ļ"
      ],
      [
        "ä»",
        "·"
      ],
      [
        "æł",
        "·"
      ],
      [
        "åı",
        "°"
      ],
      [
        "ç",
        "¦"
      ],
      [
        "å±",
        "±"
      ],
      [
        "è",
        "Ħ"
      ],
      [
        "ç±",
        "»"
      ],
      [
        "åĮ",
        "Ĺ"
      ],
      [
        "ä¸",
        "ĸ"
      ],
      [
        "ä¼",
        "ĺ"
      ],
      [
        "æ²",
        "»"
      ],
      [
        "æĬ",
        "ķ"
      ],
      [
        "è¯",
        "ģ"
      ],
      [
        "åı",
        "ĺ"
      ],
      [
        "èĢ",
        "ĥ"
      ],
      [
        "éĹ",
        "®"
      ],
      [
        "å",
        "Ļ"
      ],
      [
        "æ",
        "£"
      ],
      [
        "åħ",
        "Ī"
      ],
      [
        "é¢",
        "Ĩ"
      ],
      [
        "æİ",
        "¨"
      ],
      [
        "åĽ½",
        "å®¶"
      ],
      [
        "èĬ",
        "Ĥ"
      ],
      [
        "åĩ",
        "Ĩ"
      ],
      [
        "æ²",
        "¡"
      ],
      [
        "å",
        "²"
      ],
      [
        "èµ",
        "Ľ"
      ],
      [
        "æĸ",
        "½"
      ],
      [
        "è®",
        "¤"
      ],
      [
        "å½",
        "¢"
      ],
      [
        "è°",
        "ĥ"
      ],
      [
        "è®",
        "©"
      ],
      [
        "ä¹",
        "¦"
      ],
      [
        "æģ",
        "¯"
      ],
      [
        "æĪ",
        "·"
      ],
      [
        "æĶ",
        "¹"
      ],
      [
        "åĬ",
        "ŀ"
      ],
      [
        "è´",
        "¹"
      ],
      [
        "åĻ",
        "¨"
      ],
      [
        "åı",
        "£"
      ],
      [
        "æĥ",
        "³"
      ],
      [
        "1",
        "0"
      ],
      [
        "å·",
        "±"
      ],
      [
        "æ¯",
        "ı"
      ],
      [
        "å¸Ĥ",
        "åľº"
      ],
      [
        "ä¹",
        "Ī"
      ],
      [
        "å¸",
        "ĥ"
      ],
      [
        "å®",
        "Į"
      ],
      [
        "éĢ",
        "ī"
      ],
      [
        "å°",
        "ĳ"
      ],
      [
        "å",
        "Ķ"
      ],
      [
        "ç©",
        "¶"
      ],
      [
        "çĻ",
        "½"
      ],
      [
        "æ",
        "®"
      ],
      [
        "éĻ",
        "ħ"
      ],
      [
        "çĽ",
        "´"
      ],
      [
        "åĪ",
        "«"
      ],
      [
        "éĺ",
        "Ł"
      ],
      [
        "æ",
        "¼"
      ],
      [
        "åı",
        "ĸ"
      ],
      [
        "å¸",
        "¦"
      ],
      [
        "æŀ",
        "Ħ"
      ],
      [
        "èĩª",
        "å·±"
      ],
      [
        "çķ",
        "Į"
      ],
      [
        "è¾",
        "ĥ"
      ],
      [
        "æĿ",
        "¡"
      ],
      [
        "åı",
        "Ĥ"
      ],
      [
        "æĶ",
        "¯"
      ],
      [
        "å®",
        "¢"
      ],
      [
        "ä»",
        "Ĭ"
      ],
      [
        "è®",
        "°"
      ],
      [
        "é",
        "»"
      ],
      [
        "æĶ",
        "¾"
      ],
      [
        "ç²",
        "¾"
      ],
      [
        "è¯",
        "¥"
      ],
      [
        "æĮ",
        "ĩ"
      ],
      [
        "åı",
        "ª"
      ],
      [
        "ç©",
        "º"
      ],
      [
        "åį",
        "İ"
      ],
      [
        "éĻ",
        "Ĳ"
      ],
      [
        "åĽ",
        "Ľ"
      ],
      [
        "çĥ",
        "Ń"
      ],
      [
        "æķ",
        "´"
      ],
      [
        "éĺ",
        "²"
      ],
      [
        "é¡¹",
        "çĽ®"
      ],
      [
        "è¿",
        "ĳ"
      ],
      [
        "æ",
        "¨"
      ],
      [
        "æ³",
        "¨"
      ],
      [
        "å»º",
        "è®¾"
      ],
      [
        "è§",
        "Ĥ"
      ],
      [
        "è§",
        "Ĩ"
      ],
      [
        "æ¶",
        "Ī"
      ],
      [
        "èĢ",
        "ģ"
      ],
      [
        "æ·",
        "±"
      ],
      [
        "çłĶ",
        "ç©¶"
      ],
      [
        "æŃ",
        "¥"
      ],
      [
        "é",
        "Ĥ£"
      ],
      [
        "å±",
        "Ģ"
      ],
      [
        "åĮ",
        "ħ"
      ],
      [
        "åħ",
        "ī"
      ],
      [
        "ç",
        "ħ"
      ],
      [
        "éĿ",
        "ŀ"
      ],
      [
        "å¢",
        "ĥ"
      ],
      [
        "äº",
        "¿"
      ],
      [
        "éª",
        "Į"
      ],
      [
        "ç¡",
        "®"
      ],
      [
        "å¤",
        "į"
      ],
      [
        "è",
        "Ļ"
      ],
      [
        "ç»",
        "Ļ"
      ],
      [
        "æµ",
        "İ"
      ],
      [
        "çİ",
        "ĩ"
      ],
      [
        "æĪ",
        "ĺ"
      ],
      [
        "ç",
        "Ĭ"
      ],
      [
        "ç»",
        "Ń"
      ],
      [
        "ä¹",
        "Ĳ"
      ],
      [
        "è¯",
        "ķ"
      ],
      [
        "æ",
        "Ĥ"
      ],
      [
        "åĽ",
        "ŀ"
      ],
      [
        "æī",
        "į"
      ],
      [
        "è£",
        "ħ"
      ],
      [
        "éĢ",
        "Ł"
      ],
      [
        "éĢļ",
        "è¿ĩ"
      ],
      [
        "ç«",
        "Ļ"
      ],
      [
        "å®",
        "¹"
      ],
      [
        "åĬ",
        "Ł"
      ],
      [
        "å§",
        "Ķ"
      ],
      [
        "æķĻ",
        "èĤ²"
      ],
      [
        "æĸ",
        "¯"
      ],
      [
        "ä½",
        "İ"
      ],
      [
        "æ",
        "¢"
      ],
      [
        "ä½¿",
        "çĶ¨"
      ],
      [
        "å·",
        "ŀ"
      ],
      [
        "è½",
        "¬"
      ],
      [
        "åı",
        "·"
      ],
      [
        "çĶŁ",
        "äº§"
      ],
      [
        "æĹ¶",
        "éĹ´"
      ],
      [
        "æ²¡",
        "æľī"
      ],
      [
        "å®",
        "ĥ"
      ],
      [
        "æ",
        "¹"
      ],
      [
        "é",
        "Ł"
      ],
      [
        "åĨ",
        "³"
      ],
      [
        "èģ",
        "Į"
      ],
      [
        "æĿ",
        "ĥ"
      ],
      [
        "åĬ",
        "©"
      ],
      [
        "é£",
        "Ł"
      ],
      [
        "æī",
        "ĵ"
      ],
      [
        "åĳ",
        "Ĭ"
      ],
      [
        "æıĲ",
        "ä¾Ľ"
      ],
      [
        "æĬ",
        "¤"
      ],
      [
        "æĺ",
        "ĵ"
      ],
      [
        "é",
        "¥"
      ],
      [
        "åį",
        "ĩ"
      ],
      [
        "æĿ",
        "Ĳ"
      ],
      [
        "çĸ",
        "Ĺ"
      ],
      [
        "èİ",
        "·"
      ],
      [
        "å¿",
        "«"
      ],
      [
        "çº",
        "¦"
      ],
      [
        "æľ",
        "ª"
      ],
      [
        "æ¨",
        "¡"
      ],
      [
        "ç§",
        "¯"
      ],
      [
        "è",
        "±"
      ],
      [
        "é¦",
        "ĸ"
      ],
      [
        "è¶",
        "ħ"
      ],
      [
        "ç¥",
        "ŀ"
      ],
      [
        "å¼",
        "ķ"
      ],
      [
        "1",
        "9"
      ],
      [
        "å·¥",
        "ç¨ĭ"
      ],
      [
        "æŁ",
        "¥"
      ],
      [
        "ä¸ĵ",
        "ä¸ļ"
      ],
      [
        "çľ",
        "Ł"
      ],
      [
        "ä»ĸ",
        "ä»¬"
      ],
      [
        "ç§",
        "°"
      ],
      [
        "è´",
        "£"
      ],
      [
        "ç»ı",
        "æµİ"
      ],
      [
        "åĪ",
        "Ĵ"
      ],
      [
        ".",
        "."
      ],
      [
        "è®",
        "®"
      ],
      [
        "æł",
        "¹"
      ],
      [
        "æİ",
        "§"
      ],
      [
        "ç´",
        "ł"
      ],
      [
        "éĩ",
        "ĩ"
      ],
      [
        "æ¸",
        "ħ"
      ],
      [
        "åŃ¦",
        "çĶŁ"
      ],
      [
        "åĢ",
        "¼"
      ],
      [
        "è¡Į",
        "ä¸ļ"
      ],
      [
        "é¢",
        "Ħ"
      ],
      [
        "åŁ",
        "Ł"
      ],
      [
        "å¤",
        "´"
      ],
      [
        "éĹ®",
        "é¢ĺ"
      ],
      [
        "ç¤¾",
        "ä¼ļ"
      ],
      [
        "åĨ",
        "ľ"
      ],
      [
        "æ¡",
        "Ī"
      ],
      [
        "è®¾",
        "è®¡"
      ],
      [
        "æĢ",
        "ģ"
      ],
      [
        "ä¸»",
        "è¦ģ"
      ],
      [
        "è¶",
        "Ĭ"
      ],
      [
        "è§",
        "ģ"
      ],
      [
        "äº",
        "Ķ"
      ],
      [
        "åĵ",
        "į"
      ],
      [
        "è¯",
        "Ĩ"
      ],
      [
        "æĺ",
        "¾"
      ],
      [
        "èĤ",
        "¡"
      ],
      [
        "ç±",
        "³"
      ],
      [
        "ç³»",
        "ç»Ł"
      ],
      [
        "è®",
        "º"
      ],
      [
        "ä¿¡",
        "æģ¯"
      ],
      [
        "å¾",
        "·"
      ],
      [
        "è¯",
        "·"
      ],
      [
        "èī",
        "º"
      ],
      [
        "ãĢĤ",
        "âĢĿ"
      ],
      [
        "åİ",
        "Ĩ"
      ],
      [
        "æŀ",
        "ģ"
      ],
      [
        "åĳ",
        "¨"
      ],
      [
        "å§",
        "ĭ"
      ],
      [
        "å®ī",
        "åħ¨"
      ],
      [
        "æ±",
        "Ł"
      ],
      [
        "å£",
        "«"
      ],
      [
        "åħ",
        "»"
      ],
      [
        "ç",
        "ı"
      ],
      [
        "æĪ",
        "¿"
      ],
      [
        "åĨ",
        "µ"
      ],
      [
        "æĹ",
        "ħ"
      ],
      [
        "è",
        "ŀ"
      ],
      [
        "æİ",
        "Ĵ"
      ],
      [
        "åĨ",
        "į"
      ],
      [
        "èĮ",
        "ĥ"
      ],
      [
        "èĬ",
        "±"
      ],
      [
        "âĢĿ",
        ","
      ],
      [
        "éĶ",
        "Ģ"
      ],
      [
        "ä¾",
        "ĭ"
      ],
      [
        "äº",
        "¬"
      ],
      [
        "çĪ",
        "±"
      ],
      [
        "ä¹",
        "ł"
      ],
      [
        "äº§",
        "ä¸ļ"
      ],
      [
        "ä¼",
        "Ĺ"
      ],
      [
        "éľĢ",
        "è¦ģ"
      ],
      [
        "åĽ",
        "Ń"
      ],
      [
        "è¯",
        "Ħ"
      ],
      [
        "èĩ",
        "´"
      ],
      [
        "æĻ",
        "¯"
      ],
      [
        "æĸ",
        "Ń"
      ],
      [
        "åĪ",
        "Ļ"
      ],
      [
        "å",
        "¡"
      ],
      [
        "å°±",
        "æĺ¯"
      ],
      [
        "é©",
        "¬"
      ],
      [
        "æ",
        "Ĵ"
      ],
      [
        "çī",
        "ĩ"
      ],
      [
        "æĸĩ",
        "åĮĸ"
      ],
      [
        "âĢ",
        "Ķ"
      ],
      [
        "æ´»",
        "åĬ¨"
      ],
      [
        "åŃ",
        "ĺ"
      ],
      [
        "æµ",
        "ĭ"
      ],
      [
        "åį",
        "ı"
      ],
      [
        "åĲĮ",
        "æĹ¶"
      ],
      [
        "çĶŁ",
        "æ´»"
      ],
      [
        "ä»¥",
        "åıĬ"
      ],
      [
        "ä½",
        "ķ"
      ],
      [
        "åģ",
        "¥"
      ],
      [
        "éħ",
        "į"
      ],
      [
        "ä¸",
        "Ķ"
      ],
      [
        "åĪ",
        "Ĺ"
      ],
      [
        "äºº",
        "åĳĺ"
      ],
      [
        "ç»",
        "´"
      ],
      [
        "ä¸ĸ",
        "çķĮ"
      ],
      [
        "æ¸",
        "©"
      ],
      [
        "è¶",
        "³"
      ],
      [
        "æ£",
        "Ģ"
      ],
      [
        "éĻ",
        "į"
      ],
      [
        "åĽ½",
        "éĻħ"
      ],
      [
        "ç",
        "ĭ"
      ],
      [
        "æĸ¹",
        "éĿ¢"
      ],
      [
        "æĬ",
        "Ĭ"
      ],
      [
        "å°",
        "Ķ"
      ],
      [
        "1",
        "2"
      ],
      [
        "åħ",
        "ļ"
      ],
      [
        "éļ",
        "¾"
      ],
      [
        "æĪĲ",
        "ä¸º"
      ],
      [
        "äº",
        "ļ"
      ],
      [
        "åº",
        "ľ"
      ],
      [
        "ä¸Ń",
        "å¿ĥ"
      ],
      [
        "çħ",
        "§"
      ],
      [
        "ç",
        "ª"
      ],
      [
        "çĽ¸",
        "åħ³"
      ],
      [
        "åº",
        "Ĺ"
      ],
      [
        "çĽ",
        "ĳ"
      ],
      [
        "è",
        "ĳ"
      ],
      [
        "éĻ",
        "¤"
      ],
      [
        "å¥",
        "³"
      ],
      [
        "å¤§",
        "åŃ¦"
      ],
      [
        "å¿",
        "ħ"
      ],
      [
        "éħ",
        "Ĵ"
      ],
      [
        "ç»",
        "ĩ"
      ],
      [
        "åİ",
        "ĭ"
      ],
      [
        "çİ¯",
        "å¢ĥ"
      ],
      [
        "æ¼",
        "Ķ"
      ],
      [
        "æ",
        "ĳ"
      ],
      [
        "éĩį",
        "è¦ģ"
      ],
      [
        "åŃ",
        "Ĺ"
      ],
      [
        "åĬ",
        "¿"
      ],
      [
        "å½±",
        "åĵį"
      ],
      [
        "èį",
        "¯"
      ],
      [
        "æĻ",
        "º"
      ],
      [
        "åİ",
        "¿"
      ],
      [
        "èŀ",
        "į"
      ],
      [
        "åı",
        "į"
      ],
      [
        "éļ",
        "ı"
      ],
      [
        "çī",
        "Į"
      ],
      [
        "ä»",
        "½"
      ],
      [
        "è",
        "ħ"
      ],
      [
        "åı",
        "Ī"
      ],
      [
        "20",
        "0"
      ],
      [
        "å¹",
        "²"
      ],
      [
        "åº",
        "·"
      ],
      [
        "æĬķ",
        "èµĦ"
      ],
      [
        "æ®",
        "µ"
      ],
      [
        "è¦ģ",
        "æ±Ĥ"
      ],
      [
        "ç¦",
        "»"
      ],
      [
        "åĿ",
        "ĩ"
      ],
      [
        "æ»",
        "¡"
      ],
      [
        "è¯",
        "Ŀ"
      ],
      [
        "æĿ",
        "ĳ"
      ],
      [
        "çĬ",
        "¶"
      ],
      [
        "é",
        "¾"
      ],
      [
        "çŁ",
        "³"
      ],
      [
        "åħ·",
        "æľī"
      ],
      [
        "æ",
        "ħ"
      ],
      [
        "åĩ",
        "ł"
      ],
      [
        "éĢ",
        "Ĥ"
      ],
      [
        "å±",
        "ŀ"
      ],
      [
        "å¼",
        "ł"
      ],
      [
        "å·²",
        "ç»ı"
      ],
      [
        "è",
        "ı"
      ],
      [
        "å¥",
        "ĸ"
      ],
      [
        "éŁ",
        "³"
      ],
      [
        "ä»",
        "ħ"
      ],
      [
        "å¢ŀ",
        "éķ¿"
      ],
      [
        "æĺ",
        "Ł"
      ],
      [
        "æ",
        "Ĥ£"
      ],
      [
        "å®",
        "¤"
      ],
      [
        "è¿Ļ",
        "ä¸ª"
      ],
      [
        "æ",
        "ļ"
      ],
      [
        "ä¾",
        "Ŀ"
      ],
      [
        "ç¬¬",
        "ä¸Ģ"
      ],
      [
        "åħ",
        "ĭ"
      ],
      [
        "åĽ",
        "¾"
      ],
      [
        "åį",
        "³"
      ],
      [
        "ç®",
        "Ĺ"
      ],
      [
        "å",
        "ĭ"
      ],
      [
        "æĢ",
        "Ŀ"
      ],
      [
        "çĻ",
        "¾"
      ],
      [
        "è´",
        "Ł"
      ],
      [
        "æĶ¿",
        "åºľ"
      ],
      [
        "å",
        "Ħ"
      ],
      [
        "1",
        "1"
      ],
      [
        "ç½",
        "®"
      ],
      [
        "åı¯",
        "èĥ½"
      ],
      [
        "çļĦ",
        "ä¸Ģ"
      ],
      [
        "åŃ¦",
        "æł¡"
      ],
      [
        "æ²",
        "¹"
      ],
      [
        "åĶ",
        "®"
      ],
      [
        "çĽ",
        "Ĭ"
      ],
      [
        "çļĦ",
        "äºº"
      ],
      [
        "èĥ½",
        "åĬĽ"
      ],
      [
        "æł",
        "¸"
      ],
      [
        "è¿",
        "ŀ"
      ],
      [
        "çĽ®",
        "åīį"
      ],
      [
        "ä¾",
        "¿"
      ],
      [
        "æķ°",
        "æį®"
      ],
      [
        "æĥħ",
        "åĨµ"
      ],
      [
        "ä¹",
        "ī"
      ],
      [
        "èĭ",
        "±"
      ],
      [
        "æī",
        "¿"
      ],
      [
        "çŃ",
        "ĳ"
      ],
      [
        "åŁ",
        "¹"
      ],
      [
        "åħ¶",
        "ä¸Ń"
      ],
      [
        "åĽł",
        "ä¸º"
      ],
      [
        "åĳ",
        "½"
      ],
      [
        "åįķ",
        "ä½į"
      ],
      [
        "æ¬",
        "¾"
      ],
      [
        "å¦Ĥ",
        "æŀľ"
      ],
      [
        "åŁİ",
        "å¸Ĥ"
      ],
      [
        "å¤",
        "ª"
      ],
      [
        "èĲ",
        "½"
      ],
      [
        "éĺ",
        "³"
      ],
      [
        "å¥",
        "¹"
      ],
      [
        "ä½ľ",
        "ä¸º"
      ],
      [
        "é",
        "Ĥ"
      ],
      [
        "çİ",
        "ĭ"
      ],
      [
        "åĨ",
        "Ľ"
      ],
      [
        "ç»",
        "Ĩ"
      ],
      [
        "è®",
        "¸"
      ],
      [
        "è®¾",
        "å¤ĩ"
      ],
      [
        "è¯",
        "Ń"
      ],
      [
        "å±",
        "Ĥ"
      ],
      [
        "éĽĨ",
        "åĽ¢"
      ],
      [
        "ç",
        "¢"
      ],
      [
        "ç§ĳ",
        "æĬĢ"
      ],
      [
        "å",
        "¨"
      ],
      [
        "è±",
        "¡"
      ],
      [
        "æľ",
        "Ľ"
      ],
      [
        "æĮ",
        "ī"
      ],
      [
        "ä¸",
        "¥"
      ],
      [
        "ç",
        "Į"
      ],
      [
        "æŀ",
        "Ĺ"
      ],
      [
        "åŃ",
        "£"
      ],
      [
        "ç»Ħ",
        "ç»ĩ"
      ],
      [
        "åĦ",
        "¿"
      ],
      [
        "æľī",
        "éĻĲ"
      ],
      [
        "åĪĽ",
        "æĸ°"
      ],
      [
        "ä»",
        "Ģ"
      ],
      [
        "ä½",
        "ı"
      ],
      [
        "ä¸",
        "¾"
      ],
      [
        "äº",
        "Ĵ"
      ],
      [
        "æĿ",
        "¿"
      ],
      [
        "æĭ",
        "ī"
      ],
      [
        "éĿ",
        "Ĵ"
      ],
      [
        "çŃ",
        "ĸ"
      ],
      [
        "æ",
        "Ĳ"
      ],
      [
        "åħ",
        "ħ"
      ],
      [
        "åĽ",
        "´"
      ],
      [
        "åĩ",
        "ı"
      ],
      [
        "âĢĿ",
        "ãĢĤ"
      ],
      [
        "æĺ¯",
        "ä¸Ģ"
      ],
      [
        "æ±",
        "½"
      ],
      [
        "éĻ",
        "©"
      ],
      [
        "3",
        "0"
      ],
      [
        "å»º",
        "çŃĳ"
      ],
      [
        "å¤§",
        "çļĦ"
      ],
      [
        "æ²",
        "³"
      ],
      [
        "ä¸į",
        "åĲĮ"
      ],
      [
        "è´¨",
        "éĩı"
      ],
      [
        "èµ",
        "°"
      ],
      [
        "ä¿",
        "®"
      ],
      [
        "åľ",
        "Ł"
      ],
      [
        "åĲĪ",
        "ä½ľ"
      ],
      [
        "åħ¶",
        "ä»ĸ"
      ],
      [
        "å",
        "ĥ"
      ],
      [
        "åĸ",
        "Ħ"
      ],
      [
        "1",
        "5"
      ],
      [
        "æł¹",
        "æį®"
      ],
      [
        "å¾",
        "Ģ"
      ],
      [
        "ä»Ģ",
        "ä¹Ī"
      ],
      [
        "å¥½",
        "çļĦ"
      ],
      [
        "å¤Ħ",
        "çĲĨ"
      ],
      [
        "åħ¨",
        "åĽ½"
      ],
      [
        "å®ŀ",
        "çİ°"
      ],
      [
        "äºº",
        "æ°ĳ"
      ],
      [
        "åı",
        "²"
      ],
      [
        "éĵ",
        "ģ"
      ],
      [
        "æłĩ",
        "åĩĨ"
      ],
      [
        "è¡¨",
        "ç¤º"
      ],
      [
        "å¿",
        "µ"
      ],
      [
        "åĢ",
        "Ļ"
      ],
      [
        "å¤",
        "Ł"
      ],
      [
        "ç»",
        "Ī"
      ],
      [
        "åĪ",
        "ĩ"
      ],
      [
        "è",
        "¨"
      ],
      [
        "è¿Ļ",
        "äºĽ"
      ],
      [
        "è¨",
        "Ģ"
      ],
      [
        "æĭ",
        "¬"
      ],
      [
        "çĸ",
        "«"
      ],
      [
        "æĻ",
        "®"
      ],
      [
        "äº¿",
        "åħĥ"
      ],
      [
        "äº",
        "ī"
      ],
      [
        "å¤",
        "±"
      ],
      [
        "ä»¥",
        "ä¸Ĭ"
      ],
      [
        "çº",
        "¢"
      ],
      [
        "è´",
        "¢"
      ],
      [
        "å¾",
        "®"
      ],
      [
        "è´",
        "Ń"
      ],
      [
        "åºĶ",
        "çĶ¨"
      ],
      [
        "èµĦ",
        "æºĲ"
      ],
      [
        "æī",
        "¹"
      ],
      [
        "åħ",
        "į"
      ],
      [
        "èĪ",
        "ª"
      ],
      [
        "çļ",
        "®"
      ],
      [
        "èī",
        "¯"
      ],
      [
        "éĥ¨",
        "åĪĨ"
      ],
      [
        "åı",
        "Į"
      ],
      [
        "å½",
        "ķ"
      ],
      [
        "åĮħ",
        "æĭ¬"
      ],
      [
        "å¯",
        "Į"
      ],
      [
        "å¯¹",
        "äºİ"
      ],
      [
        "å¼Ģ",
        "å§ĭ"
      ],
      [
        "çı",
        "Ń"
      ],
      [
        "åĿ",
        "ļ"
      ],
      [
        "åį",
        "«"
      ],
      [
        "åı",
        "¤"
      ],
      [
        "å®",
        "¡"
      ],
      [
        "ä¸Ń",
        "çļĦ"
      ],
      [
        "åŃ¦",
        "ä¹ł"
      ],
      [
        "çģ",
        "«"
      ],
      [
        "å£",
        "°"
      ],
      [
        "åĥ",
        "ı"
      ],
      [
        "çĶ",
        "»"
      ],
      [
        "æĸ¹",
        "å¼ı"
      ],
      [
        "éĥ¨",
        "éĹ¨"
      ],
      [
        "å±",
        "ħ"
      ],
      [
        "åĪ",
        "Ŀ"
      ],
      [
        "æıĲ",
        "é«ĺ"
      ],
      [
        "åĲ",
        "«"
      ],
      [
        "ç¾İ",
        "åĽ½"
      ],
      [
        "201",
        "9"
      ],
      [
        "éĴ",
        "¢"
      ],
      [
        "äºº",
        "çļĦ"
      ],
      [
        "éĵ",
        "¶"
      ],
      [
        "åį",
        "ł"
      ],
      [
        "åı",
        "ĭ"
      ],
      [
        "è¿",
        "ľ"
      ],
      [
        "å¾Ī",
        "å¤ļ"
      ],
      [
        ")",
        ","
      ],
      [
        "æľīéĻĲ",
        "åħ¬åı¸"
      ],
      [
        "è¯",
        "¾"
      ],
      [
        "å¾",
        "ĭ"
      ],
      [
        "ç¾",
        "¤"
      ],
      [
        "æ",
        "¥"
      ],
      [
        "åį",
        "ļ"
      ],
      [
        "æĿĲ",
        "æĸĻ"
      ],
      [
        "æ²»",
        "çĸĹ"
      ],
      [
        "åį",
        "Ĭ"
      ],
      [
        "çī",
        "Ī"
      ],
      [
        "åİ",
        "Ĥ"
      ],
      [
        "åľ°",
        "åĮº"
      ],
      [
        "ç®",
        "Ģ"
      ],
      [
        "ç»",
        "ľ"
      ],
      [
        "æĭ",
        "Ľ"
      ],
      [
        "ä¹Ł",
        "æĺ¯"
      ],
      [
        "å¯",
        "Ĩ"
      ],
      [
        "é¢",
        "Ŀ"
      ],
      [
        "ç§ĳ",
        "åŃ¦"
      ],
      [
        "æĹħ",
        "æ¸¸"
      ],
      [
        "åħ",
        "´"
      ],
      [
        "è¾",
        "ĵ"
      ],
      [
        "ç¦",
        "ı"
      ],
      [
        "è¡",
        "Ģ"
      ],
      [
        "20",
        "20"
      ],
      [
        "é»",
        "Ħ"
      ],
      [
        "å¿",
        "Ĺ"
      ],
      [
        "å¹³",
        "åı°"
      ],
      [
        "æķ",
        "ħ"
      ],
      [
        "åį",
        "°"
      ],
      [
        "æīĢ",
        "ä»¥"
      ],
      [
        "å¼Ģ",
        "åıĳ"
      ],
      [
        "å",
        "ł"
      ],
      [
        "çº",
        "ª"
      ],
      [
        "å·¥",
        "ä¸ļ"
      ],
      [
        "è§Ħ",
        "å®ļ"
      ],
      [
        "é¾",
        "Ļ"
      ],
      [
        "åģ¥",
        "åº·"
      ],
      [
        "è§",
        "ī"
      ],
      [
        "%",
        ","
      ],
      [
        "æ±½",
        "è½¦"
      ],
      [
        "éĿŀ",
        "å¸¸"
      ],
      [
        "çĶ",
        "³"
      ],
      [
        "æĭ",
        "©"
      ],
      [
        "åŁº",
        "ç¡"
      ],
      [
        "ä¸ļ",
        "åĬ¡"
      ],
      [
        "åŁºç¡",
        "Ģ"
      ],
      [
        "ä½",
        "Ļ"
      ],
      [
        "åŃ",
        "©"
      ],
      [
        "è¿ĩ",
        "ç¨ĭ"
      ],
      [
        "e",
        "r"
      ],
      [
        "è¾",
        "¹"
      ],
      [
        "äº",
        "ĳ"
      ],
      [
        "åĪ°",
        "äºĨ"
      ],
      [
        "è¿Ļ",
        "æł·"
      ],
      [
        "åĮĹ",
        "äº¬"
      ],
      [
        "å·",
        "´"
      ],
      [
        "æĹ",
        "©"
      ],
      [
        "ä¸į",
        "æĸŃ"
      ],
      [
        "çļĦ",
        "æĺ¯"
      ],
      [
        ":",
        "âĢľ"
      ],
      [
        "è§",
        "Ĵ"
      ],
      [
        "æī",
        "§"
      ],
      [
        "åº",
        "ķ"
      ],
      [
        "åĩº",
        "çİ°"
      ],
      [
        "æŁ",
        "ĵ"
      ],
      [
        "æ¹",
        "ĸ"
      ],
      [
        "å®",
        "³"
      ],
      [
        "è®",
        "Ń"
      ],
      [
        "ç½ĳ",
        "ç»ľ"
      ],
      [
        "æĤ£",
        "èĢħ"
      ],
      [
        "é¢Ĩ",
        "åŁŁ"
      ],
      [
        "é¡",
        "»"
      ],
      [
        "èģ",
        "ļ"
      ],
      [
        "è½",
        "»"
      ],
      [
        "èİ·",
        "å¾Ĺ"
      ],
      [
        "æĪ",
        "ı"
      ],
      [
        "ä¸Ģ",
        "äºĽ"
      ],
      [
        "ç½",
        "Ĺ"
      ],
      [
        "åī",
        "¯"
      ],
      [
        "æĭ",
        "ħ"
      ],
      [
        "åĽ½",
        "åĨħ"
      ],
      [
        "å¤§",
        "å®¶"
      ],
      [
        "ä»",
        "ĭ"
      ],
      [
        "å¹´",
        "çļĦ"
      ],
      [
        "åº",
        "§"
      ],
      [
        "ç«",
        "ŀ"
      ],
      [
        "ä½Ĩ",
        "æĺ¯"
      ],
      [
        "åĽł",
        "æŃ¤"
      ],
      [
        "ç»",
        "¼"
      ],
      [
        "éĢī",
        "æĭ©"
      ],
      [
        "èĥ½",
        "å¤Ł"
      ],
      [
        "æĴ",
        "Ń"
      ],
      [
        "æ",
        "¿"
      ],
      [
        "è®",
        "²"
      ],
      [
        "éķ",
        "ĩ"
      ],
      [
        "æŃ",
        "¢"
      ],
      [
        "%",
        "ãĢĤ"
      ],
      [
        "åŃ¦",
        "éĻ¢"
      ],
      [
        "ç»",
        "§"
      ],
      [
        "å¸",
        "Į"
      ],
      [
        "åĲ",
        "¸"
      ],
      [
        "æľº",
        "æŀĦ"
      ],
      [
        "å®Į",
        "æĪĲ"
      ],
      [
        "èĩªå·±",
        "çļĦ"
      ],
      [
        "è¡",
        "¥"
      ],
      [
        "1",
        "8"
      ],
      [
        "ä½ľ",
        "çĶ¨"
      ],
      [
        "çķ",
        "¥"
      ],
      [
        "çĭ",
        "¬"
      ],
      [
        "åħ¨",
        "çĲĥ"
      ],
      [
        "å®",
        "£"
      ],
      [
        "æ±",
        "¡"
      ],
      [
        "åī",
        "Ĥ"
      ],
      [
        "5",
        "0"
      ],
      [
        "åĵģ",
        "çīĮ"
      ],
      [
        "ä¸ĩ",
        "åħĥ"
      ],
      [
        "æĭ",
        "¥"
      ],
      [
        "ä¸",
        "´"
      ],
      [
        "ç¨",
        "³"
      ],
      [
        "çª",
        "ģ"
      ],
      [
        "ä¸į",
        "æĺ¯"
      ],
      [
        "è¯",
        "»"
      ],
      [
        "åıĳ",
        "çĶŁ"
      ],
      [
        "ç",
        "ĵ"
      ],
      [
        "æĪĳ",
        "åĽ½"
      ],
      [
        "äºĨ",
        "è§£"
      ],
      [
        "é¦",
        "Ļ"
      ],
      [
        "å®",
        "Ŀ"
      ],
      [
        "æ¬",
        "¢"
      ],
      [
        "åĨħ",
        "å®¹"
      ],
      [
        "å°",
        "½"
      ],
      [
        "åī",
        "§"
      ],
      [
        "Â",
        "·"
      ],
      [
        "ä¸Ģ",
        "å®ļ"
      ],
      [
        "é",
        "²"
      ],
      [
        "çİ°",
        "åľ¨"
      ],
      [
        "æ¿",
        "Ģ"
      ],
      [
        "çľ",
        "¼"
      ],
      [
        "çł",
        "´"
      ],
      [
        "æ",
        "ĵ"
      ],
      [
        "ç¼",
        "ĸ"
      ],
      [
        "éĢ",
        "ģ"
      ],
      [
        "æ¸",
        "¯"
      ],
      [
        "æ¶Ī",
        "è´¹"
      ],
      [
        "åį",
        "´"
      ],
      [
        "åıĳ",
        "çİ°"
      ],
      [
        "æĹ¶",
        "åĢĻ"
      ],
      [
        "å",
        "Ĥ"
      ],
      [
        "æ",
        "½"
      ],
      [
        "åı",
        "¦"
      ],
      [
        "ç»ı",
        "èĲ¥"
      ],
      [
        "æĿ",
        "İ"
      ],
      [
        "è®¡",
        "åĪĴ"
      ],
      [
        "çĶ±",
        "äºİ"
      ],
      [
        "çº",
        "³"
      ],
      [
        "åĨ",
        "Ļ"
      ],
      [
        "ľ",
        "é£İ"
      ],
      [
        "çĻ½",
        "çĻ"
      ],
      [
        ",",
        "âĢľ"
      ],
      [
        "åĳ",
        "³"
      ],
      [
        "æīĢ",
        "æľī"
      ],
      [
        "ç»",
        "¿"
      ],
      [
        "ä¹",
        "¡"
      ],
      [
        "åħ",
        "Ń"
      ],
      [
        "çķ",
        "Ļ"
      ],
      [
        "èĪ",
        "¬"
      ],
      [
        "çĻ½çĻ",
        "ľé£İ"
      ],
      [
        "æľī",
        "åħ³"
      ],
      [
        "ç«",
        "¯"
      ],
      [
        "å¢ŀ",
        "åĬł"
      ],
      [
        "éľĢ",
        "æ±Ĥ"
      ],
      [
        "å¼Ģ",
        "å±ķ"
      ],
      [
        "å®",
        "ĺ"
      ],
      [
        "äº",
        "«"
      ],
      [
        "åĸ",
        "ľ"
      ],
      [
        "1",
        "00"
      ],
      [
        "1",
        "6"
      ],
      [
        "è®¤",
        "ä¸º"
      ],
      [
        "æıĲ",
        "åįĩ"
      ],
      [
        "åį",
        "¡"
      ],
      [
        "çĶ¨",
        "æĪ·"
      ],
      [
        "æ¬",
        "§"
      ],
      [
        "ç»¼",
        "åĲĪ"
      ],
      [
        "éļ",
        "ľ"
      ],
      [
        "ä¸Ģ",
        "æŃ¥"
      ],
      [
        "éĿ",
        "©"
      ],
      [
        "åį",
        "ĥ"
      ],
      [
        "è´",
        "§"
      ],
      [
        "åĬ",
        "³"
      ],
      [
        "å¸",
        "®"
      ],
      [
        "ç¬¬",
        "äºĮ"
      ],
      [
        "ä¸ª",
        "äºº"
      ],
      [
        "æĽ",
        "¾"
      ],
      [
        "éĺ",
        "¿"
      ],
      [
        "èĭ",
        "ı"
      ],
      [
        "æĺ",
        "¥"
      ],
      [
        "æ",
        "¤"
      ],
      [
        "éħĴ",
        "åºĹ"
      ],
      [
        "ç»",
        "©"
      ],
      [
        "æĸ¹",
        "æ³ķ"
      ],
      [
        "ä¿",
        "ĥ"
      ],
      [
        "åĬŁ",
        "èĥ½"
      ],
      [
        "ä¸Ĭ",
        "æµ·"
      ],
      [
        "i",
        "n"
      ],
      [
        "æĻº",
        "èĥ½"
      ],
      [
        "æŀ",
        "Ĳ"
      ],
      [
        "æ",
        "¦"
      ],
      [
        "å®¢",
        "æĪ·"
      ],
      [
        "ç¥",
        "¨"
      ],
      [
        "ç",
        "Ĩ"
      ],
      [
        "åŃ©",
        "åŃĲ"
      ],
      [
        "ç¨",
        "İ"
      ],
      [
        "äº",
        "²"
      ],
      [
        "èīº",
        "æľ¯"
      ],
      [
        "æ´",
        "²"
      ],
      [
        "æĶ¯",
        "æĮģ"
      ],
      [
        "æ°´",
        "å¹³"
      ],
      [
        "æĪĸ",
        "èĢħ"
      ],
      [
        "è¾¾",
        "åĪ°"
      ],
      [
        "æİ§",
        "åĪ¶"
      ],
      [
        "1",
        "4"
      ],
      [
        "ç§",
        "»"
      ],
      [
        "çĶµ",
        "åŃĲ"
      ],
      [
        "åĨ",
        "ł"
      ],
      [
        "æŁ",
        "Ĳ"
      ],
      [
        "è´Ł",
        "è´£"
      ],
      [
        "è½",
        "½"
      ],
      [
        "åĮ»",
        "éĻ¢"
      ],
      [
        "o",
        "n"
      ],
      [
        "ç»ĵ",
        "æŀĦ"
      ],
      [
        "é¢",
        "ĳ"
      ],
      [
        "æĶ¿",
        "çŃĸ"
      ],
      [
        "é¦",
        "Ĩ"
      ],
      [
        "ç§¯",
        "æŀģ"
      ],
      [
        "ä¸",
        "°"
      ],
      [
        "å²",
        "ģ"
      ],
      [
        "éĥ½",
        "æĺ¯"
      ],
      [
        "çĹ",
        "ĩ"
      ],
      [
        "ä»Ĭ",
        "å¹´"
      ],
      [
        "ç²¾",
        "ç¥ŀ"
      ],
      [
        "a",
        "n"
      ],
      [
        "å¾",
        "ħ"
      ],
      [
        "åıĳ",
        "å¸ĥ"
      ],
      [
        "æİ",
        "Ī"
      ],
      [
        "æľª",
        "æĿ¥"
      ],
      [
        "åĩ",
        "Ģ"
      ],
      [
        "é£",
        "ŀ"
      ],
      [
        "æĭ¥",
        "æľī"
      ],
      [
        "æį",
        "¢"
      ],
      [
        "æľ",
        "¨"
      ],
      [
        "201",
        "8"
      ],
      [
        "ä¿Ŀ",
        "æĬ¤"
      ],
      [
        "ä¸į",
        "èĥ½"
      ],
      [
        "ä»£",
        "è¡¨"
      ],
      [
        "æĤ",
        "¨"
      ],
      [
        "åħ",
        "°"
      ],
      [
        "1",
        "3"
      ],
      [
        "è¶ħ",
        "è¿ĩ"
      ],
      [
        "çŁ",
        "Ń"
      ],
      [
        "åĪ¶",
        "éĢł"
      ],
      [
        "åĪ©",
        "çĶ¨"
      ],
      [
        "ä¹ĭ",
        "ä¸Ģ"
      ],
      [
        "æķĻ",
        "åŃ¦"
      ],
      [
        "æ³",
        "¢"
      ],
      [
        "è¿Ļ",
        "ç§į"
      ],
      [
        "ç",
        "¿"
      ],
      [
        "åº",
        "ı"
      ],
      [
        "éĶĢ",
        "åĶ®"
      ],
      [
        "åĲ",
        "ĥ"
      ],
      [
        "è¿Ļ",
        "ä¸Ģ"
      ],
      [
        "å·",
        "®"
      ],
      [
        "æĬ",
        "Ĺ"
      ],
      [
        "éĩĩ",
        "çĶ¨"
      ],
      [
        "å¾",
        "ģ"
      ],
      [
        "ä½",
        "Ľ"
      ],
      [
        "å®ŀ",
        "æĸ½"
      ],
      [
        "é»",
        "ĳ"
      ],
      [
        ")",
        "ãĢĤ"
      ],
      [
        "èĻ",
        "½"
      ],
      [
        "å¼",
        "Ĥ"
      ],
      [
        "å°",
        "¼"
      ],
      [
        "åĩ",
        "»"
      ],
      [
        "åİĨ",
        "åı²"
      ],
      [
        "å±",
        "Ĭ"
      ],
      [
        "ä¸º",
        "äºĨ"
      ],
      [
        "èģĶ",
        "ç½ĳ"
      ],
      [
        "ä»·",
        "æł¼"
      ],
      [
        "è",
        "Ĵ"
      ],
      [
        "è¿ĺ",
        "æĺ¯"
      ],
      [
        "äº¤",
        "éĢļ"
      ],
      [
        "æ¯",
        "Ĵ"
      ],
      [
        "ä¼",
        "¤"
      ],
      [
        "ç",
        "£"
      ],
      [
        "åıĤ",
        "åĬł"
      ],
      [
        "å¯",
        "Ł"
      ],
      [
        "è´£",
        "ä»»"
      ],
      [
        "åĪĨ",
        "æŀĲ"
      ],
      [
        "ç",
        "ĩ"
      ],
      [
        "æĦ",
        "¿"
      ],
      [
        "ç§",
        "Ģ"
      ],
      [
        "èĩª",
        "çĦ¶"
      ],
      [
        "ç´",
        "¢"
      ],
      [
        "é",
        "¼"
      ],
      [
        "æł",
        "ĳ"
      ],
      [
        "æĶ¶",
        "åħ¥"
      ],
      [
        "ä»",
        "į"
      ],
      [
        "å½¢",
        "æĪĲ"
      ],
      [
        "æį",
        "Ł"
      ],
      [
        "æ¯Ķ",
        "è¾ĥ"
      ],
      [
        "æĺ¾",
        "ç¤º"
      ],
      [
        "èĳ",
        "Ĺ"
      ],
      [
        "éħ",
        "¸"
      ],
      [
        "åĲĦ",
        "ç§į"
      ],
      [
        "ä¹",
        "°"
      ],
      [
        "ä»",
        "¤"
      ],
      [
        "åĲ",
        "¬"
      ],
      [
        "ä¸Ģ",
        "èĪ¬"
      ],
      [
        "åŁº",
        "æľ¬"
      ],
      [
        "å¿ħ",
        "é¡»"
      ],
      [
        "è§£",
        "åĨ³"
      ],
      [
        "æĽ´",
        "å¤ļ"
      ],
      [
        "äºĨ",
        "ä¸Ģ"
      ],
      [
        "è¿Ľ",
        "åħ¥"
      ],
      [
        "2",
        "5"
      ],
      [
        "å½",
        "©"
      ],
      [
        "ç´",
        "§"
      ],
      [
        "1",
        "7"
      ],
      [
        "æĮģ",
        "ç»Ń"
      ],
      [
        "ç«",
        "ł"
      ],
      [
        "ä¼ł",
        "ç»Ł"
      ],
      [
        "æ¥",
        "¼"
      ],
      [
        "æľī",
        "æķĪ"
      ],
      [
        "èĮ",
        "¶"
      ],
      [
        "å¸Į",
        "æľĽ"
      ],
      [
        "è½",
        "¯"
      ],
      [
        "æĿ¡",
        "ä»¶"
      ],
      [
        "è½",
        "®"
      ],
      [
        "é¥",
        "®"
      ],
      [
        "-",
        "-"
      ],
      [
        "éļı",
        "çĿĢ"
      ],
      [
        "æĹ",
        "ı"
      ],
      [
        "äº§",
        "çĶŁ"
      ],
      [
        "å¥",
        "ĩ"
      ],
      [
        "çŁ¥",
        "è¯Ĩ"
      ],
      [
        "æ¸¸",
        "æĪı"
      ],
      [
        "ç½ĳ",
        "ç«Ļ"
      ],
      [
        "ä»",
        "ĺ"
      ],
      [
        "è¿Ľ",
        "ä¸ĢæŃ¥"
      ],
      [
        "æĬ¥",
        "åĳĬ"
      ],
      [
        "é",
        "¸"
      ],
      [
        "åħ³",
        "ç³»"
      ],
      [
        "åº",
        "Ń"
      ],
      [
        "æī",
        "¾"
      ],
      [
        "éĩį",
        "çĤ¹"
      ],
      [
        "å",
        "ª"
      ],
      [
        "ä¸Ĭ",
        "çļĦ"
      ],
      [
        "åĲ",
        "¦"
      ],
      [
        "äº",
        "Ī"
      ],
      [
        "åħ",
        "«"
      ],
      [
        "è¿",
        "°"
      ],
      [
        "åģ",
        "ĩ"
      ],
      [
        "åħ",
        "¸"
      ],
      [
        "ç",
        "¯"
      ],
      [
        "åıĤ",
        "ä¸İ"
      ],
      [
        "è¿ĺ",
        "æľī"
      ],
      [
        "æĸ°",
        "çļĦ"
      ],
      [
        "ç»",
        "į"
      ],
      [
        "éĩĳ",
        "èŀį"
      ],
      [
        "åŃĺ",
        "åľ¨"
      ],
      [
        "çī¹",
        "åĪ«"
      ],
      [
        "âĢĶ",
        "âĢĶ"
      ],
      [
        "å¥",
        "Ĺ"
      ],
      [
        "åĽ",
        "º"
      ],
      [
        "äºº",
        "æīį"
      ],
      [
        "è",
        "Ĩ"
      ],
      [
        "æ±",
        "ī"
      ],
      [
        "è§Ħ",
        "åĪĴ"
      ],
      [
        "æŃ",
        "¦"
      ],
      [
        "çĶ",
        "·"
      ],
      [
        "æĪĲ",
        "åĬŁ"
      ],
      [
        "çĻ",
        "»"
      ],
      [
        "é£Ł",
        "åĵģ"
      ],
      [
        "æ¯",
        "į"
      ],
      [
        "ä¸į",
        "ä»ħ"
      ],
      [
        "çī",
        "Ľ"
      ],
      [
        "åĪ",
        "»"
      ],
      [
        "çĿ",
        "£"
      ],
      [
        "è®°",
        "èĢħ"
      ],
      [
        "è",
        "Ń"
      ],
      [
        "åĽ",
        "°"
      ],
      [
        "å",
        "©"
      ],
      [
        "çĸ",
        "¾"
      ],
      [
        "å»º",
        "ç«ĭ"
      ],
      [
        "æķĻ",
        "å¸Ī"
      ],
      [
        "å",
        "³"
      ],
      [
        "æ¶",
        "²"
      ],
      [
        "çĸ«",
        "æĥħ"
      ],
      [
        "æ¯Ķ",
        "èµĽ"
      ],
      [
        "èĥ½",
        "æºĲ"
      ],
      [
        "æŃ",
        "Į"
      ],
      [
        "è§Ħ",
        "æ¨¡"
      ],
      [
        "è´",
        "µ"
      ],
      [
        "èĥ",
        "ľ"
      ],
      [
        "éģ",
        "ĩ"
      ],
      [
        "çĶ³",
        "è¯·"
      ],
      [
        "è¿Ļ",
        "æĺ¯"
      ],
      [
        "åĨ",
        "·"
      ],
      [
        "æ¯",
        "ķ"
      ],
      [
        "æĿ¥",
        "çļĦ"
      ],
      [
        "ä¸ĵ",
        "å®¶"
      ],
      [
        "çĶ¨",
        "äºİ"
      ],
      [
        "è",
        "Ĺ"
      ],
      [
        "ç³»",
        "åĪĹ"
      ],
      [
        "å¹",
        "ħ"
      ],
      [
        "ä¹ĭ",
        "åĲİ"
      ],
      [
        "ä¼ļ",
        "è®®"
      ],
      [
        "åģ",
        "ľ"
      ],
      [
        "æİ",
        "¢"
      ],
      [
        "åĲĮ",
        "æ¯Ķ"
      ],
      [
        "æī",
        "ĺ"
      ],
      [
        "éĢ",
        "Ĳ"
      ],
      [
        "åľ°",
        "æĸ¹"
      ],
      [
        "èŃ",
        "¦"
      ],
      [
        "åº",
        "Ĩ"
      ],
      [
        "è®",
        "¯"
      ],
      [
        "èĢĮ",
        "ä¸Ķ"
      ],
      [
        "åħ³",
        "äºİ"
      ],
      [
        "2",
        "4"
      ],
      [
        "è¯",
        "ī"
      ],
      [
        "æĻ",
        "ļ"
      ],
      [
        "åĬł",
        "å¼º"
      ],
      [
        "æ¶",
        "¦"
      ],
      [
        "a",
        "r"
      ],
      [
        "çŁ¥",
        "éģĵ"
      ],
      [
        "çĽ®",
        "æłĩ"
      ],
      [
        "åª",
        "Ĵ"
      ],
      [
        "ä½ĵ",
        "ç³»"
      ],
      [
        "éĹ",
        "»"
      ],
      [
        "äºº",
        "ä»¬"
      ],
      [
        "å¦Ĥ",
        "ä½ķ"
      ],
      [
        "ä¸Ģ",
        "çĽ´"
      ],
      [
        "ç¼",
        "º"
      ],
      [
        "ä¹ĭ",
        "éĹ´"
      ],
      [
        "åħ¨",
        "éĿ¢"
      ],
      [
        "è¿",
        "İ"
      ],
      [
        "ä¸",
        "ĥ"
      ],
      [
        "ä»·",
        "åĢ¼"
      ],
      [
        "å®",
        "ģ"
      ],
      [
        "å®ŀ",
        "éĻħ"
      ],
      [
        "æĸ¹",
        "æ¡Ī"
      ],
      [
        "èĻ½",
        "çĦ¶"
      ],
      [
        "..",
        ".."
      ],
      [
        "ç»§",
        "ç»Ń"
      ],
      [
        "åį",
        "±"
      ],
      [
        "ä»ĭ",
        "ç»į"
      ],
      [
        "00",
        "0"
      ],
      [
        "ä¹",
        "Ŀ"
      ],
      [
        "çĮ",
        "®"
      ],
      [
        "çĶŁ",
        "æĢģ"
      ],
      [
        "è°",
        "¢"
      ],
      [
        "éĴ",
        "Ł"
      ],
      [
        "èį",
        "£"
      ],
      [
        "ç»ĵ",
        "åĲĪ"
      ],
      [
        "æĮī",
        "çħ§"
      ],
      [
        "æĮ",
        "¥"
      ],
      [
        "çĽ",
        "ĸ"
      ],
      [
        "èģĮ",
        "ä¸ļ"
      ],
      [
        "ç»",
        "Ŀ"
      ],
      [
        "åĮ»",
        "çĸĹ"
      ],
      [
        "çļĦ",
        "åıĳå±ķ"
      ],
      [
        "¤",
        "Ĳ"
      ],
      [
        "å¸®",
        "åĬ©"
      ],
      [
        "å°",
        "Ħ"
      ],
      [
        "ä»¥",
        "ä¸ĭ"
      ],
      [
        "éĺ",
        "¶"
      ],
      [
        "æĪĲ",
        "ç«ĭ"
      ],
      [
        "æŃ",
        "»"
      ],
      [
        "å®",
        "Ī"
      ],
      [
        "æ¢",
        "°"
      ],
      [
        "å¥",
        "¥"
      ],
      [
        "å§Ķ",
        "åĳĺ"
      ],
      [
        "åĿ",
        "Ĺ"
      ],
      [
        "èĦ",
        "ĳ"
      ],
      [
        "é¢Ĩ",
        "å¯¼"
      ],
      [
        "ç¬¬",
        "ä¸ī"
      ],
      [
        "æıĲ",
        "åĩº"
      ],
      [
        "è¿",
        "½"
      ],
      [
        "åĪĨ",
        "åĪ«"
      ],
      [
        "å·",
        "¦"
      ],
      [
        "é",
        "Ĩ"
      ],
      [
        "çŃ",
        "¾"
      ],
      [
        "çĽ´",
        "æİ¥"
      ],
      [
        "åĨ",
        "Į"
      ],
      [
        "æ¡",
        "¥"
      ],
      [
        "éĤ£",
        "ä¹Ī"
      ],
      [
        "å¯¼",
        "èĩ´"
      ],
      [
        "åĤ",
        "¨"
      ],
      [
        "ä¼",
        "¼"
      ],
      [
        "æĿ¥",
        "è¯´"
      ],
      [
        "éĢł",
        "æĪĲ"
      ],
      [
        "éĵ¶",
        "è¡Į"
      ],
      [
        "çĶ",
        "ļ"
      ],
      [
        "æ¨¡",
        "å¼ı"
      ],
      [
        "åĵ",
        "ª"
      ],
      [
        "ä½ľ",
        "åĵģ"
      ],
      [
        "é",
        "º"
      ],
      [
        "å¤",
        "«"
      ],
      [
        "æĽ",
        "²"
      ],
      [
        "éĻ",
        "Ħ"
      ],
      [
        "åĲ",
        "¯"
      ],
      [
        "éĴ",
        "Ī"
      ],
      [
        "èĢ",
        "Ĳ"
      ],
      [
        "å¨",
        "ģ"
      ],
      [
        "åı",
        "³"
      ],
      [
        "è¡Į",
        "ä¸º"
      ],
      [
        "æľŁ",
        "éĹ´"
      ],
      [
        "ä¹",
        "ħ"
      ],
      [
        "æ¤",
        "į"
      ],
      [
        "éĢ",
        "ı"
      ],
      [
        "ä¿ĥ",
        "è¿Ľ"
      ],
      [
        "åıĸ",
        "å¾Ĺ"
      ],
      [
        "æ³¨",
        "æĦı"
      ],
      [
        "æĪĳä»¬",
        "çļĦ"
      ],
      [
        "è",
        "ĵ"
      ],
      [
        "ç»",
        "ĥ"
      ],
      [
        "å·",
        "Ŀ"
      ],
      [
        "çİ°",
        "ä»£"
      ],
      [
        "ä»¥",
        "æĿ¥"
      ],
      [
        "çłĶ",
        "åıĳ"
      ],
      [
        "ä¸Ģ",
        "èµ·"
      ],
      [
        "ä»",
        "ª"
      ],
      [
        "è®¡",
        "ç®Ĺ"
      ],
      [
        "æİ¨",
        "åĬ¨"
      ],
      [
        "åħ±",
        "åĲĮ"
      ],
      [
        "å»",
        "¶"
      ],
      [
        "åº",
        "Ł"
      ],
      [
        "æ°",
        "§"
      ],
      [
        "éĽ",
        "¨"
      ],
      [
        "åį",
        "Ī"
      ],
      [
        "6",
        "0"
      ],
      [
        "ä¿Ŀ",
        "æĮģ"
      ],
      [
        "æĢ",
        "¥"
      ],
      [
        "éĻ",
        "Ī"
      ],
      [
        "é",
        "¤Ĳ"
      ],
      [
        "å¹´",
        "æĿ¥"
      ],
      [
        "ä¸į",
        "ä¼ļ"
      ],
      [
        "æİ",
        "ª"
      ],
      [
        "çģ",
        "µ"
      ],
      [
        "æİ¨",
        "è¿Ľ"
      ],
      [
        "ä»ĸ",
        "çļĦ"
      ],
      [
        "ä½",
        "³"
      ],
      [
        "æĹ¶",
        "ä»£"
      ],
      [
        "èĮĥ",
        "åĽ´"
      ],
      [
        "åº",
        "ĵ"
      ],
      [
        "è¡Į",
        "æĶ¿"
      ],
      [
        "èĭ",
        "¥"
      ],
      [
        "è®",
        "¢"
      ],
      [
        "è¯",
        "¢"
      ],
      [
        "æī",
        "©"
      ],
      [
        "201",
        "7"
      ],
      [
        "ä¿Ŀ",
        "éļľ"
      ],
      [
        "æĿ",
        "Ĥ"
      ],
      [
        "é¥",
        "°"
      ],
      [
        "è®¸",
        "å¤ļ"
      ],
      [
        "ä»»",
        "ä½ķ"
      ],
      [
        "çļĦ",
        "å¤§"
      ],
      [
        "åĬ",
        "ª"
      ],
      [
        "åİ",
        "ħ"
      ],
      [
        "ä¸",
        "½"
      ],
      [
        "è¿Ĳ",
        "åĬ¨"
      ],
      [
        ")",
        "ãĢģ"
      ],
      [
        "åĳ",
        "¢"
      ],
      [
        "éĢ",
        "Ģ"
      ],
      [
        "æ²",
        "Ļ"
      ],
      [
        "åºĶ",
        "è¯¥"
      ],
      [
        "æĭ",
        "į"
      ],
      [
        "è¡",
        "Ĺ"
      ],
      [
        "éĿ¢",
        "ç§¯"
      ],
      [
        "é",
        "½"
      ],
      [
        "æ°",
        "¸"
      ],
      [
        "ä¼ĺ",
        "åĬ¿"
      ],
      [
        "ç«",
        "¥"
      ],
      [
        "å·",
        "¨"
      ],
      [
        "æĪĺ",
        "çķ¥"
      ],
      [
        "ç",
        "ĳ"
      ],
      [
        "èį",
        "ī"
      ],
      [
        "èµĦ",
        "éĩĳ"
      ],
      [
        "çł",
        "ģ"
      ],
      [
        "2",
        "1"
      ],
      [
        "éĿ",
        "ł"
      ],
      [
        "è·",
        "Ł"
      ],
      [
        "è´",
        "¸"
      ],
      [
        "4",
        "0"
      ],
      [
        "çĶµ",
        "å½±"
      ],
      [
        "åĽ¢",
        "éĺŁ"
      ],
      [
        "æĶ¹",
        "éĿ©"
      ],
      [
        "æķĪ",
        "æŀľ"
      ],
      [
        "è¾",
        "Ĩ"
      ],
      [
        "æī§",
        "è¡Į"
      ],
      [
        "ä¸ĭ",
        "éĻį"
      ],
      [
        "çŁ",
        "¿"
      ],
      [
        "çļĦ",
        "æĹ¶åĢĻ"
      ],
      [
        "åĬ",
        "±"
      ],
      [
        "èĦ",
        "±"
      ],
      [
        "åŁ¹",
        "åħ»"
      ],
      [
        "é¡",
        "º"
      ],
      [
        "2",
        "2"
      ],
      [
        "e",
        "n"
      ],
      [
        "æĵ",
        "į"
      ],
      [
        "æĪĲ",
        "æľ¬"
      ],
      [
        "åŁ¹",
        "è®Ń"
      ],
      [
        "è¿",
        "Ŀ"
      ],
      [
        "æĳ",
        "Ħ"
      ],
      [
        "éĶ",
        "Ļ"
      ],
      [
        "ç©º",
        "éĹ´"
      ],
      [
        "è¯",
        "Ĭ"
      ],
      [
        "çĤ",
        "İ"
      ],
      [
        "å¸",
        "Ń"
      ],
      [
        "è°",
        "Ī"
      ],
      [
        "æĭ",
        "¿"
      ],
      [
        "è®",
        "¿"
      ],
      [
        "åĩı",
        "å°ĳ"
      ],
      [
        "å¾Ĺ",
        "åĪ°"
      ],
      [
        "8",
        "0"
      ],
      [
        "éĽ",
        "¶"
      ],
      [
        "åŁº",
        "éĩĳ"
      ],
      [
        "èĥ",
        "Į"
      ],
      [
        "åĬª",
        "åĬĽ"
      ],
      [
        "åĨľ",
        "ä¸ļ"
      ],
      [
        "ç¨³",
        "å®ļ"
      ],
      [
        "è®¾",
        "æĸ½"
      ],
      [
        "äºĴ",
        "èģĶç½ĳ"
      ],
      [
        "ç«ŀ",
        "äºī"
      ],
      [
        "é",
        "Ń"
      ],
      [
        "åį«",
        "çĶŁ"
      ],
      [
        "éĵ",
        "¾"
      ],
      [
        "æķ",
        "ĳ"
      ],
      [
        "èı",
        "ľ"
      ],
      [
        "äºĭ",
        "ä¸ļ"
      ],
      [
        "å¤",
        "ı"
      ],
      [
        "åİŁ",
        "åĽł"
      ],
      [
        "æ",
        "¾"
      ],
      [
        "å®ŀ",
        "éªĮ"
      ],
      [
        "èģ",
        "ĺ"
      ],
      [
        "åĢ",
        "Ł"
      ],
      [
        "ç¬",
        "¦"
      ],
      [
        "æĶ",
        "»"
      ],
      [
        "çĶŁ",
        "çī©"
      ],
      [
        "æ±",
        "ł"
      ],
      [
        "ç´",
        "¯"
      ],
      [
        "ç²",
        "ī"
      ],
      [
        "åº",
        "Ĭ"
      ],
      [
        "æĸ½",
        "å·¥"
      ],
      [
        "äº¤",
        "æĺĵ"
      ],
      [
        "åıª",
        "æľī"
      ],
      [
        "ç»ı",
        "éªĮ"
      ],
      [
        "è¡¨",
        "çİ°"
      ],
      [
        "çĶļ",
        "èĩ³"
      ],
      [
        "æ³ķ",
        "å¾ĭ"
      ],
      [
        "æ³",
        "Ľ"
      ],
      [
        "å²",
        "Ľ"
      ],
      [
        "å¡",
        "ĳ"
      ],
      [
        "çİ",
        "©"
      ],
      [
        "åĿļ",
        "æĮģ"
      ],
      [
        "æ´",
        "Ĺ"
      ],
      [
        "ç»ĵ",
        "æŀľ"
      ],
      [
        "æĽ´",
        "åĬł"
      ],
      [
        "æĿ",
        "¾"
      ],
      [
        "æĪ",
        "ª"
      ],
      [
        "ç»ı",
        "è¿ĩ"
      ],
      [
        "åı",
        "¶"
      ],
      [
        "è´",
        "«"
      ],
      [
        "éĶ",
        "®"
      ],
      [
        "åĨ³",
        "å®ļ"
      ],
      [
        "åĨ",
        "²"
      ],
      [
        "ç¾İ",
        "åħĥ"
      ],
      [
        "èģĶ",
        "åĲĪ"
      ],
      [
        "å",
        "ĺ"
      ],
      [
        "æĢ§",
        "èĥ½"
      ],
      [
        "åıĳå±ķ",
        "çļĦ"
      ],
      [
        "åĪ",
        "ļ"
      ],
      [
        "æľ",
        "ĭ"
      ],
      [
        "éŁ³",
        "ä¹Ĳ"
      ],
      [
        "æľĢ",
        "åĲİ"
      ],
      [
        "o",
        "r"
      ],
      [
        "æľº",
        "æ¢°"
      ],
      [
        "éģ",
        "¿"
      ],
      [
        "ãĢĭ",
        ","
      ],
      [
        "çĸ¾",
        "çĹħ"
      ],
      [
        "çİ°",
        "åľº"
      ],
      [
        "å¸",
        "ģ"
      ],
      [
        "åĪ¶",
        "åº¦"
      ],
      [
        "éľ",
        "²"
      ],
      [
        "è¿ĩç¨ĭ",
        "ä¸Ń"
      ],
      [
        "åĳĺ",
        "å·¥"
      ],
      [
        "äº¤",
        "æµģ"
      ],
      [
        "ä½į",
        "äºİ"
      ],
      [
        "æĢ",
        "İ"
      ],
      [
        "èĢĥ",
        "è¯ķ"
      ],
      [
        "èĹ",
        "ı"
      ],
      [
        "ä¹",
        "İ"
      ],
      [
        "ä¸¤",
        "ä¸ª"
      ],
      [
        "ä¸°",
        "å¯Į"
      ],
      [
        "åĬł",
        "å·¥"
      ],
      [
        "ç§",
        "Ł"
      ],
      [
        "æīĭ",
        "æľº"
      ],
      [
        "çĶ",
        "°"
      ],
      [
        "æķ",
        "£"
      ],
      [
        "é£İ",
        "éĻ©"
      ],
      [
        "åıĹ",
        "åĪ°"
      ],
      [
        "æĢ§",
        "çļĦ"
      ],
      [
        "åĪ",
        "¤"
      ],
      [
        "ä¸Ģ",
        "æ¬¡"
      ],
      [
        "åĬ³",
        "åĬ¨"
      ],
      [
        "è·",
        "Ŀ"
      ],
      [
        "2",
        "3"
      ],
      [
        "ãĢĤ",
        "âĢľ"
      ],
      [
        "å°",
        "ļ"
      ],
      [
        "éĴ",
        "±"
      ],
      [
        "è¯",
        "ļ"
      ],
      [
        "çĨ",
        "Ł"
      ],
      [
        "æ¶",
        "ī"
      ],
      [
        "é¡",
        "¾"
      ],
      [
        "ç¬",
        "Ķ"
      ],
      [
        "é¡",
        "¶"
      ],
      [
        "å¤",
        "®"
      ],
      [
        "æł¸",
        "å¿ĥ"
      ],
      [
        "èĢģ",
        "å¸Ī"
      ],
      [
        "a",
        "l"
      ],
      [
        "åĮº",
        "åŁŁ"
      ],
      [
        "éģ",
        "Ĺ"
      ],
      [
        "è",
        "ª"
      ],
      [
        "è",
        "Ľ"
      ],
      [
        "æĹ¥",
        "æľ¬"
      ],
      [
        "å²",
        "Ĺ"
      ],
      [
        "çĽ",
        "ĺ"
      ],
      [
        "ä½ĵ",
        "èĤ²"
      ],
      [
        "ä¸¥",
        "éĩį"
      ],
      [
        "ä¿Ŀ",
        "è¯ģ"
      ],
      [
        "æĿ¥",
        "èĩª"
      ],
      [
        "çĽ",
        "Ł"
      ],
      [
        "ä¸Ģ",
        "ç§į"
      ],
      [
        "è¿Ĳ",
        "èĲ¥"
      ],
      [
        "è",
        "ĸ"
      ],
      [
        "çļĦ",
        "é«ĺ"
      ],
      [
        "çĽ",
        "Ľ"
      ],
      [
        "åĪ",
        "ĺ"
      ],
      [
        "èĤ",
        "ī"
      ],
      [
        "ä¼",
        "ĳ"
      ],
      [
        "ç¡",
        "¬"
      ],
      [
        "éĺ¶",
        "æ®µ"
      ],
      [
        "äº",
        "®"
      ],
      [
        "åł",
        "Ĥ"
      ],
      [
        "çİ¯",
        "ä¿Ŀ"
      ],
      [
        "19",
        "9"
      ],
      [
        "åħ³",
        "æ³¨"
      ],
      [
        "å®",
        "ľ"
      ],
      [
        "å®¶",
        "åºŃ"
      ],
      [
        "å®¹",
        "æĺĵ"
      ],
      [
        "åħ·",
        "ä½ĵ"
      ],
      [
        "æľĭ",
        "åıĭ"
      ],
      [
        "èĭ",
        "¦"
      ],
      [
        "åĪ",
        "¸"
      ],
      [
        "åıĬ",
        "æĹ¶"
      ],
      [
        "çĬ",
        "¯"
      ],
      [
        "æĪĲ",
        "ç»©"
      ],
      [
        "åħĪ",
        "è¿Ľ"
      ],
      [
        "æŃ£",
        "åľ¨"
      ],
      [
        "åıĺ",
        "åĮĸ"
      ],
      [
        "æ¸",
        "Ĳ"
      ],
      [
        "èĪ",
        "ŀ"
      ],
      [
        "æ»",
        "ĳ"
      ],
      [
        "ä¼ĺ",
        "ç§Ģ"
      ],
      [
        "æŀ",
        "¶"
      ],
      [
        "201",
        "6"
      ],
      [
        "æ³¨",
        "åĨĮ"
      ],
      [
        "åĽł",
        "ç´ł"
      ],
      [
        "æŃ£",
        "å¼ı"
      ],
      [
        "æ³",
        "°"
      ],
      [
        "ç½",
        "ª"
      ],
      [
        "çĸ",
        "ĳ"
      ],
      [
        "åįı",
        "ä¼ļ"
      ],
      [
        "æ´",
        "¾"
      ],
      [
        "éĻ",
        "Ĩ"
      ],
      [
        "å½",
        "Ĵ"
      ],
      [
        "_",
        "_"
      ],
      [
        "å®",
        "Ĺ"
      ],
      [
        "ä¸į",
        "è¿ĩ"
      ],
      [
        "åªĴ",
        "ä½ĵ"
      ],
      [
        "è·",
        "µ"
      ],
      [
        "æ¯ķ",
        "ä¸ļ"
      ],
      [
        "èĥ",
        "¶"
      ],
      [
        "çĪ",
        "¶"
      ],
      [
        "2",
        "8"
      ],
      [
        "å°",
        "¤"
      ],
      [
        "åķĨ",
        "ä¸ļ"
      ],
      [
        "ä¸Ģ",
        "æł·"
      ],
      [
        "ä¸»",
        "é¢ĺ"
      ],
      [
        "çĥ",
        "Ī"
      ],
      [
        "çľĭ",
        "åĪ°"
      ],
      [
        "åİ",
        "ļ"
      ],
      [
        "éĻ¤",
        "äºĨ"
      ],
      [
        "æĮĩ",
        "å¯¼"
      ],
      [
        "æ±¡",
        "æŁĵ"
      ],
      [
        "åħħ",
        "åĪĨ"
      ],
      [
        "è¿Ĳ",
        "è¾ĵ"
      ],
      [
        "å½¢",
        "å¼ı"
      ],
      [
        "å°ı",
        "æĹ¶"
      ],
      [
        "éĩ",
        "Ĭ"
      ],
      [
        "2",
        "6"
      ],
      [
        "a",
        "t"
      ],
      [
        "çĩ",
        "ĥ"
      ],
      [
        "è¿",
        "ª"
      ],
      [
        "çī¹",
        "èī²"
      ],
      [
        "æİ¥",
        "åıĹ"
      ],
      [
        "èµĦ",
        "äº§"
      ],
      [
        "æİª",
        "æĸ½"
      ],
      [
        "çŃ",
        "Ķ"
      ],
      [
        "æ£Ģ",
        "æŁ¥"
      ],
      [
        "åĲ",
        "ī"
      ],
      [
        "è¿Ĳ",
        "è¡Į"
      ],
      [
        "æ¢",
        "¦"
      ],
      [
        "åºĶ",
        "å½ĵ"
      ],
      [
        "è¯",
        "Ĺ"
      ],
      [
        "è§",
        "Ī"
      ],
      [
        "æ´",
        "ĭ"
      ],
      [
        "æľī",
        "çļĦ"
      ],
      [
        "èĩª",
        "åĬ¨"
      ],
      [
        "é²",
        "ľ"
      ],
      [
        "åĬŀ",
        "åħ¬"
      ],
      [
        "è§",
        "¦"
      ],
      [
        "åħ¬",
        "éĩĮ"
      ],
      [
        "ç¤",
        "¼"
      ],
      [
        "éķ¿",
        "æľŁ"
      ],
      [
        "å·¥",
        "èīº"
      ],
      [
        "è¿Ļ",
        "éĩĮ"
      ],
      [
        "å¹¶",
        "ä¸Ķ"
      ],
      [
        "åħ¬",
        "åħ±"
      ],
      [
        "èĥ",
        "ŀ"
      ],
      [
        "è®",
        "¨"
      ],
      [
        "èĻ",
        "ĳ"
      ],
      [
        "æľ",
        "Ŀ"
      ],
      [
        "ä¼",
        "´"
      ],
      [
        "åħ¬",
        "å¼Ģ"
      ],
      [
        "çģ",
        "¯"
      ],
      [
        "éĻį",
        "ä½İ"
      ],
      [
        "æĹł",
        "æ³ķ"
      ],
      [
        "å°",
        "ģ"
      ],
      [
        "âĢĿ",
        "ãĢģ"
      ],
      [
        "å§Ķåĳĺ",
        "ä¼ļ"
      ],
      [
        "çĶ",
        "²"
      ],
      [
        "éĽ",
        "·"
      ],
      [
        "å¸¦",
        "æĿ¥"
      ],
      [
        "æĺİ",
        "æĺ¾"
      ],
      [
        "2",
        "7"
      ],
      [
        "ç®",
        "±"
      ],
      [
        "æĹ",
        "¢"
      ],
      [
        "åľ",
        "£"
      ],
      [
        "éĿ",
        "Ļ"
      ],
      [
        "å¹¿",
        "æ³Ľ"
      ],
      [
        "çļĦ",
        "æĸ°"
      ],
      [
        "å¤",
        "ľ"
      ],
      [
        "çģ",
        "¾"
      ],
      [
        "æ¹",
        "¾"
      ],
      [
        "èĲ½",
        "å®ŀ"
      ],
      [
        "æīį",
        "èĥ½"
      ],
      [
        "æ£Ģ",
        "æµĭ"
      ],
      [
        "åģļ",
        "å¥½"
      ],
      [
        "å¹´",
        "åº¦"
      ],
      [
        "æĸ",
        "Ĺ"
      ],
      [
        "é",
        "¹"
      ],
      [
        "æĺ¯",
        "åľ¨"
      ],
      [
        "è°ĥ",
        "æķ´"
      ],
      [
        "ä»Ĭ",
        "å¤©"
      ],
      [
        "Ġ",
        "S"
      ],
      [
        "æħ",
        "¢"
      ],
      [
        "èĨ",
        "ľ"
      ],
      [
        "åħ³",
        "éĶ®"
      ],
      [
        "åĿ",
        "Ģ"
      ],
      [
        "è¯",
        "į"
      ],
      [
        "201",
        "5"
      ],
      [
        "æŃ¤",
        "å¤ĸ"
      ],
      [
        "èª",
        "ī"
      ],
      [
        "èµ·",
        "æĿ¥"
      ],
      [
        "ç¼",
        "©"
      ],
      [
        "å³",
        "°"
      ],
      [
        "å®£",
        "ä¼ł"
      ],
      [
        "åıĳ",
        "æĮ¥"
      ],
      [
        "ä¹",
        "ĺ"
      ],
      [
        "åĲ",
        "¨"
      ],
      [
        "èĪ",
        "¹"
      ],
      [
        "åĪĽ",
        "éĢł"
      ],
      [
        "éĩı",
        "çļĦ"
      ],
      [
        "èº«",
        "ä½ĵ"
      ],
      [
        "æ»¡",
        "è¶³"
      ],
      [
        "æķħ",
        "äºĭ"
      ],
      [
        "æīĵ",
        "éĢł"
      ],
      [
        "Ġ",
        "("
      ],
      [
        "åĪĨ",
        "éĴŁ"
      ],
      [
        "çĹ",
        "Ľ"
      ],
      [
        "è§Ħ",
        "èĮĥ"
      ],
      [
        "æĺ¯",
        "ä¸Ģä¸ª"
      ],
      [
        "æĺ¯",
        "åĲ¦"
      ],
      [
        "æĿ¥",
        "è¶Ĭ"
      ],
      [
        "å®Į",
        "åĸĦ"
      ],
      [
        "çļĦ",
        "éĩįè¦ģ"
      ],
      [
        "è¶Ĭ",
        "æĿ¥è¶Ĭ"
      ],
      [
        "æķ°",
        "åŃĹ"
      ],
      [
        "åĩº",
        "äºĨ"
      ],
      [
        "èµĦ",
        "æł¼"
      ],
      [
        "åį",
        "ĸ"
      ],
      [
        "çī©",
        "æµģ"
      ],
      [
        "æ·",
        "·"
      ],
      [
        "é«ĺ",
        "çļĦ"
      ],
      [
        "èĤ",
        "¤"
      ],
      [
        "æĥ",
        "ł"
      ],
      [
        "å¼Ģ",
        "æĶ¾"
      ],
      [
        "å¹³",
        "æĸ¹"
      ],
      [
        "æĪĳ",
        "çļĦ"
      ],
      [
        "åı",
        "¥"
      ],
      [
        "è°ĥ",
        "æŁ¥"
      ],
      [
        "çº",
        "¸"
      ],
      [
        "é½",
        "Ĳ"
      ],
      [
        "å¿«",
        "éĢŁ"
      ],
      [
        "ç¬¦",
        "åĲĪ"
      ],
      [
        "e",
        "s"
      ],
      [
        "æ´",
        "ģ"
      ],
      [
        "åŁº",
        "åľ°"
      ],
      [
        "å¹",
        "ķ"
      ],
      [
        "çİ",
        "ī"
      ],
      [
        "æĦı",
        "è§ģ"
      ],
      [
        "ç»¿",
        "èī²"
      ],
      [
        "æĢ",
        "Ģ"
      ],
      [
        "çĶŁ",
        "åĳ½"
      ],
      [
        "é",
        "±"
      ],
      [
        "å¹¶",
        "ä¸į"
      ],
      [
        "ä¼",
        "°"
      ],
      [
        "çĽĳ",
        "çĿ£"
      ],
      [
        "ä¸»",
        "ä»»"
      ],
      [
        "åħ¶",
        "å®ŀ"
      ],
      [
        "è´",
        "´"
      ],
      [
        "è´",
        "·"
      ],
      [
        "é±",
        "¼"
      ],
      [
        "åİĭ",
        "åĬĽ"
      ],
      [
        "å®",
        "½"
      ],
      [
        "éĢ",
        "Ķ"
      ],
      [
        "å»º",
        "è®®"
      ],
      [
        "åĵ",
        "Ī"
      ],
      [
        "é¼",
        "ĵ"
      ],
      [
        "ä¹Ł",
        "ä¸į"
      ],
      [
        "è¶",
        "£"
      ],
      [
        "æľº",
        "ä¼ļ"
      ],
      [
        "Ġ",
        "C"
      ],
      [
        "æ¦",
        "Ĥ"
      ],
      [
        "æĿ",
        "Ł"
      ],
      [
        "æľĢ",
        "ç»Ī"
      ],
      [
        "æĵį",
        "ä½ľ"
      ],
      [
        "ä¸Ĭ",
        "å¸Ĥ"
      ],
      [
        "å·¦",
        "åı³"
      ],
      [
        "æ±",
        "ĩ"
      ],
      [
        "æľ",
        "«"
      ],
      [
        "çĲĨ",
        "å¿µ"
      ],
      [
        "çī",
        "Ļ"
      ],
      [
        "æĺ¯ä¸Ģ",
        "ç§į"
      ],
      [
        "æ£",
        "®"
      ],
      [
        "ä¸¾",
        "åĬŀ"
      ],
      [
        "ç»Ħ",
        "æĪĲ"
      ],
      [
        "å±ŀ",
        "äºİ"
      ],
      [
        "æĸ¹",
        "åĲĳ"
      ],
      [
        "åĸľ",
        "æ¬¢"
      ],
      [
        "ä¸",
        "Ŀ"
      ],
      [
        "æĤ",
        "ī"
      ],
      [
        "åľ",
        "Ĩ"
      ],
      [
        "åĮĸ",
        "åŃ¦"
      ],
      [
        "è",
        "¸"
      ],
      [
        "åĮĸ",
        "çļĦ"
      ],
      [
        "åĿ",
        "Ĳ"
      ],
      [
        "ä»»",
        "åĬ¡"
      ],
      [
        "è´",
        "¡"
      ],
      [
        "éª",
        "¨"
      ],
      [
        "éļ",
        "Ķ"
      ],
      [
        "åĲ",
        "Ĺ"
      ],
      [
        "æ¡",
        "£"
      ],
      [
        "æĸ°",
        "éĹ»"
      ],
      [
        "e",
        "l"
      ],
      [
        "çĶµ",
        "è§Ĩ"
      ],
      [
        "åĪ¶",
        "ä½ľ"
      ],
      [
        "åİ»",
        "å¹´"
      ],
      [
        "æħ",
        "§"
      ],
      [
        "i",
        "c"
      ],
      [
        "7",
        "0"
      ],
      [
        "ç»Ĩ",
        "èĥŀ"
      ],
      [
        "è¯¾",
        "ç¨ĭ"
      ],
      [
        "æ¶Īè´¹",
        "èĢħ"
      ],
      [
        "ç",
        "¦ģ"
      ],
      [
        "ä¹ĭ",
        "åīį"
      ],
      [
        "åĢ",
        "º"
      ],
      [
        "ç",
        "ĺ"
      ],
      [
        "ç¡®",
        "å®ļ"
      ],
      [
        "éĽ",
        "ħ"
      ],
      [
        "å½ĵ",
        "åľ°"
      ],
      [
        "æķ´",
        "ä¸ª"
      ],
      [
        "æĿ",
        "¨"
      ],
      [
        "éĽ",
        "Ħ"
      ],
      [
        "ä¸į",
        "åı¯"
      ],
      [
        "è§Ĩ",
        "é¢ĳ"
      ],
      [
        "è¯",
        "º"
      ],
      [
        "çº",
        "·"
      ],
      [
        "æ¹",
        "¿"
      ],
      [
        "éĢļ",
        "çŁ¥"
      ],
      [
        "ä¸į",
        "å¾Ĺ"
      ],
      [
        "æĢĿ",
        "æĥ³"
      ],
      [
        "æĭ",
        "Ł"
      ],
      [
        "éĩį",
        "å¤§"
      ],
      [
        "èĳ",
        "£"
      ],
      [
        "æ¶",
        "Ĥ"
      ],
      [
        "æľº",
        "åħ³"
      ],
      [
        "2",
        "9"
      ],
      [
        "ç",
        "Ĵ"
      ],
      [
        "å®",
        "¿"
      ],
      [
        "i",
        "t"
      ],
      [
        "è",
        "Ķ"
      ],
      [
        "ç³",
        "ĸ"
      ],
      [
        "åĳ",
        "Ī"
      ],
      [
        "ç©",
        "¿"
      ],
      [
        "å¹",
        "¸"
      ],
      [
        "åĦ¿",
        "ç«¥"
      ],
      [
        "ç½",
        "ļ"
      ],
      [
        "æķĻ",
        "æİĪ"
      ],
      [
        "å¾",
        "Ħ"
      ],
      [
        "æĶ¹",
        "åıĺ"
      ],
      [
        "æĮ",
        "ĳ"
      ],
      [
        "æķ´",
        "ä½ĵ"
      ],
      [
        "éĤ",
        "®"
      ],
      [
        "çļĦ",
        "äºĭ"
      ],
      [
        "å¯",
        "»"
      ],
      [
        "èĤ¡",
        "ä»½"
      ],
      [
        "æĻ®",
        "éĢļ"
      ],
      [
        "æ´",
        "¥"
      ],
      [
        "ä¸Ń",
        "å¤®"
      ],
      [
        "å®Į",
        "åħ¨"
      ],
      [
        "åĴ",
        "¨"
      ],
      [
        "æĿ",
        "¯"
      ],
      [
        "åĲĪ",
        "åĲĮ"
      ],
      [
        "æ¯",
        "Ľ"
      ],
      [
        "ç¡®",
        "ä¿Ŀ"
      ],
      [
        "å¡",
        "Ķ"
      ],
      [
        "å",
        "´"
      ],
      [
        "åĩº",
        "çļĦ"
      ],
      [
        "åı",
        "¬"
      ],
      [
        "ä¸Ń",
        "åįİ"
      ],
      [
        "ä¸ª",
        "æľĪ"
      ],
      [
        "èµĦ",
        "æĸĻ"
      ],
      [
        "æĿ¥",
        "çľĭ"
      ],
      [
        "ä¹Ł",
        "æľī"
      ],
      [
        "è¶",
        "ĭ"
      ],
      [
        "ä»İ",
        "èĢĮ"
      ],
      [
        "å®ŀ",
        "è·µ"
      ],
      [
        "çī¹",
        "çĤ¹"
      ],
      [
        "ç»Ł",
        "è®¡"
      ],
      [
        "éĴĪ",
        "å¯¹"
      ],
      [
        "ç®Ģ",
        "åįķ"
      ],
      [
        "æĹ",
        "Ĺ"
      ],
      [
        "åĴ¨",
        "è¯¢"
      ],
      [
        "å±",
        "ĭ"
      ],
      [
        "æĪĲ",
        "æŀľ"
      ],
      [
        "æ¶",
        "¨"
      ],
      [
        "ä½ĵ",
        "éªĮ"
      ],
      [
        "æı",
        "¡"
      ],
      [
        "ä»İ",
        "äºĭ"
      ],
      [
        "è½¯",
        "ä»¶"
      ],
      [
        "è¿ĩ",
        "åİ»"
      ],
      [
        "ç¨ĭ",
        "åº¦"
      ],
      [
        "ç§",
        "ĭ"
      ],
      [
        "ç¼",
        "ĵ"
      ],
      [
        "åľ",
        "³"
      ],
      [
        "æĹ",
        "§"
      ],
      [
        "æī",
        "¬"
      ],
      [
        "èģĶ",
        "ç³»"
      ],
      [
        "ç§ĳ",
        "çłĶ"
      ],
      [
        "ä¸įåĲĮ",
        "çļĦ"
      ],
      [
        "è·",
        "¨"
      ],
      [
        "ä¸į",
        "è¦ģ"
      ],
      [
        "ç§",
        "ģ"
      ],
      [
        "æĬ¥",
        "åĲį"
      ],
      [
        "éĵ",
        "Ŀ"
      ],
      [
        "èī¯",
        "å¥½çļĦ"
      ],
      [
        "æ·±",
        "åľ³"
      ],
      [
        "çĦ¶",
        "åĲİ"
      ],
      [
        "æī",
        "¶"
      ],
      [
        "æĦı",
        "è¯Ĩ"
      ],
      [
        "åħ",
        "µ"
      ],
      [
        "çī©",
        "è´¨"
      ],
      [
        "é¦Ļ",
        "æ¸¯"
      ],
      [
        "æĬ",
        "ĵ"
      ],
      [
        "åĩ",
        "Ŀ"
      ],
      [
        "å®ī",
        "æİĴ"
      ],
      [
        "æİ",
        "Į"
      ],
      [
        "æĸĩ",
        "ä»¶"
      ],
      [
        "ç½",
        "²"
      ],
      [
        "æŃ¤",
        "æ¬¡"
      ],
      [
        "ç©º",
        "æ°Ķ"
      ],
      [
        "èĪª",
        "ç©º"
      ],
      [
        "éĽ",
        "ª"
      ],
      [
        "çĬ¶",
        "æĢģ"
      ],
      [
        "æĭ",
        "ĵ"
      ],
      [
        "åĲ",
        "§"
      ],
      [
        "çļĦ",
        "éĹ®é¢ĺ"
      ],
      [
        "èĻ",
        "ļ"
      ],
      [
        "éĺ",
        "µ"
      ],
      [
        "3",
        "1"
      ],
      [
        "æľ¬",
        "æ¬¡"
      ],
      [
        "åĢ",
        "į"
      ],
      [
        "éĥ½",
        "æľī"
      ],
      [
        "å©",
        "ļ"
      ],
      [
        "èĩª",
        "èº«"
      ],
      [
        "çħ",
        "¤"
      ],
      [
        "è",
        "ļ"
      ],
      [
        "æĿ",
        "Ģ"
      ],
      [
        "å¹¿",
        "å·ŀ"
      ],
      [
        "3",
        "5"
      ],
      [
        "çľŁ",
        "æŃ£"
      ],
      [
        "ä½ł",
        "çļĦ"
      ],
      [
        "æ¾",
        "³"
      ],
      [
        "èĲ",
        "¨"
      ],
      [
        "æĻ¯",
        "åĮº"
      ],
      [
        "ä¸ĸ",
        "çºª"
      ],
      [
        "åĬĽ",
        "éĩı"
      ],
      [
        "ç§",
        "ĺ"
      ],
      [
        "çĽ®",
        "çļĦ"
      ],
      [
        "èĤ",
        "¥"
      ],
      [
        "èı",
        "Į"
      ],
      [
        "ç¨ĭ",
        "åºı"
      ],
      [
        "çĪ",
        "Ĩ"
      ],
      [
        "æŃ£",
        "å¸¸"
      ],
      [
        "å¿ĥ",
        "çĲĨ"
      ],
      [
        "ä¸¾",
        "è¡Į"
      ],
      [
        "åĶ",
        "±"
      ],
      [
        "ä¼",
        "¦"
      ],
      [
        "éĩĳ",
        "å±ŀ"
      ],
      [
        "å½ĵ",
        "æĹ¶"
      ],
      [
        "æ®",
        "Ĭ"
      ],
      [
        "ä¹¦",
        "è®°"
      ],
      [
        "çļĦ",
        "å·¥ä½ľ"
      ],
      [
        "åĪĽ",
        "ä¸ļ"
      ],
      [
        "èĢĥ",
        "èĻĳ"
      ],
      [
        "ç¤¾",
        "åĮº"
      ],
      [
        "é©",
        "¾"
      ],
      [
        "æ²",
        "Ł"
      ],
      [
        "å®",
        "«"
      ],
      [
        "±",
        "ä¹Ĳ"
      ],
      [
        "æĢİ",
        "ä¹Ī"
      ],
      [
        "é¢Ħ",
        "è®¡"
      ],
      [
        "l",
        "e"
      ],
      [
        "èµĦ",
        "æľ¬"
      ],
      [
        "èµ",
        "¢"
      ],
      [
        "çĳ",
        "ŀ"
      ],
      [
        "èĢ",
        "Ĺ"
      ],
      [
        "æĺİ",
        "ç¡®"
      ],
      [
        "æģ",
        "¶"
      ],
      [
        "æ²",
        "ī"
      ],
      [
        "åĪ©",
        "æ¶¦"
      ],
      [
        "æĦı",
        "ä¹ī"
      ],
      [
        "éĩ",
        "İ"
      ],
      [
        "ä¼",
        "Ł"
      ],
      [
        "æĺ",
        "ł"
      ],
      [
        "åĳ",
        "¼"
      ],
      [
        "å°±",
        "ä¼ļ"
      ],
      [
        "éĩįè¦ģ",
        "çļĦ"
      ],
      [
        "åĩº",
        "åı£"
      ],
      [
        "å°¤",
        "åħ¶"
      ],
      [
        "çĲĨ",
        "è®º"
      ],
      [
        "äºº",
        "ç±»"
      ],
      [
        "å½",
        "»"
      ],
      [
        "æĮĩ",
        "åĩº"
      ],
      [
        "ç¯",
        "ĩ"
      ],
      [
        "éģ¿",
        "åħį"
      ],
      [
        "åħ¨",
        "éĥ¨"
      ],
      [
        "è¡Į",
        "åĬ¨"
      ],
      [
        "èĬĤ",
        "èĥ½"
      ],
      [
        "å°±",
        "ä¸ļ"
      ],
      [
        "%",
        ";"
      ],
      [
        "âĢĿãĢģ",
        "âĢľ"
      ],
      [
        "ä¾",
        "µ"
      ],
      [
        "ä¿Ŀ",
        "éĻ©"
      ],
      [
        "æĬķ",
        "åħ¥"
      ],
      [
        "çĥ",
        "Ł"
      ],
      [
        "éŁ",
        "©"
      ],
      [
        "æ·±",
        "åħ¥"
      ],
      [
        "ä¾Ľ",
        "åºĶ"
      ],
      [
        "èĵ",
        "Ŀ"
      ],
      [
        "å¦",
        "Ī"
      ],
      [
        "å¤§",
        "åŀĭ"
      ],
      [
        "çļ®",
        "èĤ¤"
      ],
      [
        "é²",
        "ģ"
      ],
      [
        "å¼ķ",
        "èµ·"
      ],
      [
        "åıª",
        "æĺ¯"
      ],
      [
        "åĩĨ",
        "å¤ĩ"
      ],
      [
        "é¡",
        "µ"
      ],
      [
        "è£",
        "ģ"
      ],
      [
        "Ġ",
        "A"
      ],
      [
        "å¥",
        "ĭ"
      ],
      [
        "ä¸į",
        "å°ĳ"
      ],
      [
        "æ²",
        "¿"
      ],
      [
        "è¿",
        "·"
      ],
      [
        "éĢŁ",
        "åº¦"
      ],
      [
        "åĬŀ",
        "æ³ķ"
      ],
      [
        "Â",
        "°"
      ],
      [
        "æķĪ",
        "çİĩ"
      ],
      [
        "9",
        "0"
      ],
      [
        "æ¯Ķ",
        "å¦Ĥ"
      ],
      [
        "åı",
        "«"
      ],
      [
        "æķ°",
        "éĩı"
      ],
      [
        "ä¸¥",
        "æł¼"
      ],
      [
        "æľĢ",
        "å¤§"
      ],
      [
        "çĵ",
        "¦"
      ],
      [
        "è¿Ļæł·",
        "çļĦ"
      ],
      [
        "æļ",
        "ĸ"
      ],
      [
        "çº",
        "¯"
      ],
      [
        "ä¼",
        "Ĭ"
      ],
      [
        "è",
        "¦"
      ],
      [
        "åĭ",
        "ĩ"
      ],
      [
        "æľº",
        "åĪ¶"
      ],
      [
        "åĲİ",
        "çļĦ"
      ],
      [
        "èĦ",
        "Ĥ"
      ],
      [
        "åĨ",
        "¬"
      ],
      [
        "ç§»",
        "åĬ¨"
      ],
      [
        "åĪ",
        "º"
      ],
      [
        "5",
        "00"
      ],
      [
        "èĦ",
        "ļ"
      ],
      [
        "èħ",
        "Ĳ"
      ],
      [
        "å¹³",
        "åĿĩ"
      ],
      [
        "è¿Ľè¡Į",
        "äºĨ"
      ],
      [
        "Ġ",
        "M"
      ],
      [
        "åĪ¶",
        "å®ļ"
      ],
      [
        "äº",
        "¦"
      ],
      [
        "æ½",
        "ľ"
      ],
      [
        "éģ",
        "į"
      ],
      [
        "è¯",
        "¯"
      ],
      [
        "éĺ",
        "ħ"
      ],
      [
        "å¹¿",
        "ä¸ľ"
      ],
      [
        "éķ",
        "ľ"
      ],
      [
        "ä¸º",
        "ä¸»"
      ],
      [
        "ç",
        "¹"
      ],
      [
        "è´",
        "¯"
      ],
      [
        "åĿ",
        "ı"
      ],
      [
        "æĲ",
        "Ń"
      ],
      [
        "å¤ļ",
        "ä¸ª"
      ],
      [
        "ç¹",
        "ģ"
      ],
      [
        "åįģ",
        "åĪĨ"
      ],
      [
        "è",
        "ľ"
      ],
      [
        "æµ",
        "Ļ"
      ],
      [
        "åķĨ",
        "åĵģ"
      ],
      [
        "é¾",
        "Ħ"
      ],
      [
        "æ´",
        "Ľ"
      ],
      [
        "å¢ŀ",
        "å¼º"
      ],
      [
        "å®",
        "¾"
      ],
      [
        "è¦",
        "Ĩ"
      ],
      [
        "åįĩ",
        "çº§"
      ],
      [
        "æļ",
        "´"
      ],
      [
        "æı",
        "´"
      ],
      [
        "éĩĩ",
        "åıĸ"
      ],
      [
        "è·",
        "ĳ"
      ],
      [
        "æľĢ",
        "é«ĺ"
      ],
      [
        "å±±",
        "ä¸ľ"
      ],
      [
        "æĹ¶",
        "æľŁ"
      ],
      [
        "ç¢",
        "³"
      ],
      [
        "ç¬",
        "ĳ"
      ],
      [
        "è¯Ħ",
        "ä»·"
      ],
      [
        "åĵģ",
        "è´¨"
      ],
      [
        "åħ¬åı¸",
        "çļĦ"
      ],
      [
        "å¾",
        "ª"
      ],
      [
        "ä¸Ģ",
        "ä½ĵ"
      ],
      [
        "æģ",
        "¢"
      ],
      [
        "ç¾¤",
        "ä¼Ĺ"
      ],
      [
        "åı¦",
        "å¤ĸ"
      ],
      [
        "æ",
        "©"
      ],
      [
        "åĮ»",
        "åŃ¦"
      ],
      [
        "å¢",
        "Ļ"
      ],
      [
        "çĥ",
        "¯"
      ],
      [
        "éĿ¢",
        "å¯¹"
      ],
      [
        "æĸĩ",
        "æĺİ"
      ],
      [
        "å¡",
        "ŀ"
      ],
      [
        "èĭ±",
        "åĽ½"
      ],
      [
        "æ¸©",
        "åº¦"
      ],
      [
        "è´¡",
        "çĮ®"
      ],
      [
        "èĳ£",
        "äºĭ"
      ],
      [
        "åĲĪ",
        "çĲĨ"
      ],
      [
        "è´¸",
        "æĺĵ"
      ],
      [
        "r",
        "o"
      ],
      [
        "å¤ļ",
        "çļĦ"
      ],
      [
        "æ¬§",
        "æ´²"
      ],
      [
        "ä¼ĺ",
        "è´¨"
      ],
      [
        "æģ",
        "©"
      ],
      [
        "å®ī",
        "è£ħ"
      ],
      [
        "è¡",
        "£"
      ],
      [
        "è°",
        "·"
      ],
      [
        "åĬ¨",
        "åĬĽ"
      ],
      [
        "é©",
        "¶"
      ],
      [
        "èĽ",
        "ĭ"
      ],
      [
        "è´",
        "¥"
      ],
      [
        "çĶµ",
        "æ±ł"
      ],
      [
        "æ½",
        "®"
      ],
      [
        "åĲĦ",
        "ç±»"
      ],
      [
        "201",
        "4"
      ],
      [
        "æĻº",
        "æħ§"
      ],
      [
        "èĭ",
        "Ĺ"
      ],
      [
        "åº",
        "Ħ"
      ],
      [
        "æĶ¹",
        "åĸĦ"
      ],
      [
        "åįĬ",
        "å¹´"
      ],
      [
        "å¦Ĥ",
        "æŃ¤"
      ],
      [
        "éļ",
        "Ĳ"
      ],
      [
        "åĨ",
        "°"
      ],
      [
        "åĲĮæ¯Ķ",
        "å¢ŀéķ¿"
      ],
      [
        "æ¼",
        "«"
      ],
      [
        "ä¾",
        "§"
      ],
      [
        "éĽĨ",
        "ä¸Ń"
      ],
      [
        "çļĦ",
        "æĥħåĨµ"
      ],
      [
        "æ³",
        "¥"
      ],
      [
        "éĺ",
        "»"
      ],
      [
        "åľŁ",
        "åľ°"
      ],
      [
        "å±ķ",
        "ç¤º"
      ],
      [
        "éľ",
        "ĩ"
      ],
      [
        "ç»Ł",
        "ä¸Ģ"
      ],
      [
        "å¯",
        "¿"
      ],
      [
        "éĹ",
        "Ń"
      ],
      [
        "æ¯ı",
        "å¹´"
      ],
      [
        "åĬł",
        "å¿«"
      ],
      [
        "åĲĮ",
        "åŃ¦"
      ],
      [
        "åĪ",
        "ĳ"
      ],
      [
        "çĽ¸",
        "æ¯Ķ"
      ],
      [
        "åĨħ",
        "çļĦ"
      ],
      [
        "åħ",
        "¼"
      ],
      [
        "è´¢",
        "æĶ¿"
      ],
      [
        "è¿",
        "ħ"
      ],
      [
        "èĤ",
        "º"
      ],
      [
        "å",
        "«"
      ],
      [
        "è¿ŀ",
        "ç»Ń"
      ],
      [
        "åŃ",
        "Ķ"
      ],
      [
        "æĬ¥",
        "éģĵ"
      ],
      [
        "çĶµ",
        "è¯Ŀ"
      ],
      [
        "èĴ",
        "Ļ"
      ],
      [
        "éģĵ",
        "è·¯"
      ],
      [
        "æģ¢",
        "å¤į"
      ],
      [
        "ä¼",
        "Ļ"
      ],
      [
        "åĬĽ",
        "çļĦ"
      ],
      [
        "âĢ",
        "Ļ"
      ],
      [
        "åŃ£",
        "åº¦"
      ],
      [
        "æ",
        "ĩ"
      ],
      [
        "åĶ",
        "Ĳ"
      ],
      [
        "æµ",
        "ĵ"
      ],
      [
        "çĹħ",
        "æ¯Ĵ"
      ],
      [
        "ãĢĤ",
        "("
      ],
      [
        "æĪĲ",
        "éķ¿"
      ],
      [
        "çĻ",
        "Į"
      ],
      [
        "åŃ¦",
        "ç§ĳ"
      ],
      [
        "åĨľ",
        "æĿĳ"
      ],
      [
        "åĢ",
        "Ĵ"
      ],
      [
        "çĽ¸",
        "å¯¹"
      ],
      [
        "çĽĳ",
        "ç®¡"
      ],
      [
        "çĶŁ",
        "çļĦ"
      ],
      [
        "è¯Ń",
        "è¨Ģ"
      ],
      [
        "çİ",
        "»"
      ],
      [
        "ç»",
        "ķ"
      ],
      [
        "åİŁ",
        "åĪĻ"
      ],
      [
        "ä»ĸä»¬",
        "çļĦ"
      ],
      [
        "æ¬¢",
        "è¿İ"
      ],
      [
        "åľ",
        "Ī"
      ],
      [
        "å¼",
        "±"
      ],
      [
        "å¹³æĸ¹",
        "ç±³"
      ],
      [
        "çĥ",
        "§"
      ],
      [
        "a",
        "c"
      ],
      [
        "çļ",
        "ĩ"
      ],
      [
        "Ġ",
        "P"
      ],
      [
        "æľĪ",
        "ä»½"
      ],
      [
        "è´¹",
        "çĶ¨"
      ],
      [
        "ç£",
        "¨"
      ],
      [
        "æĿ",
        "°"
      ],
      [
        "ç¼",
        "ĺ"
      ],
      [
        "æ³",
        "¡"
      ],
      [
        "åį",
        "·"
      ],
      [
        "æĬĢ",
        "èĥ½"
      ],
      [
        "æľĢ",
        "å¤§çļĦ"
      ],
      [
        "ç»´",
        "æĬ¤"
      ],
      [
        "åĬł",
        "åħ¥"
      ],
      [
        "æµ",
        "ª"
      ],
      [
        "ãĢĭ",
        "ãĢģ"
      ],
      [
        "åĵ",
        "¥"
      ],
      [
        "é¡",
        "¿"
      ],
      [
        "è¡¨",
        "éĿ¢"
      ],
      [
        "æĶ¿",
        "æ²»"
      ],
      [
        "åħļ",
        "åĳĺ"
      ],
      [
        "æ°§",
        "åĮĸ"
      ],
      [
        "èĤ",
        "¯"
      ],
      [
        "äºº",
        "åı£"
      ],
      [
        "å¼",
        "ĥ"
      ],
      [
        "å°Ĩ",
        "åľ¨"
      ],
      [
        "æ¢",
        "ħ"
      ],
      [
        "æĬ",
        "ĺ"
      ],
      [
        "å±",
        "ı"
      ],
      [
        "çĦ¶",
        "èĢĮ"
      ],
      [
        "åĿ",
        "¡"
      ],
      [
        "çī¹",
        "æ®Ĭ"
      ],
      [
        "æ¶Ī",
        "æģ¯"
      ],
      [
        "æĪª",
        "èĩ³"
      ],
      [
        "æİ¨",
        "å¹¿"
      ],
      [
        "æ¸¸",
        "å®¢"
      ],
      [
        "é«ĺ",
        "éĢŁ"
      ],
      [
        "åĽ°",
        "éļ¾"
      ],
      [
        "æ¢",
        "ģ"
      ],
      [
        "ç»ı",
        "çĲĨ"
      ],
      [
        "é¦ĸ",
        "åħĪ"
      ],
      [
        "æĥ",
        "Ĭ"
      ],
      [
        "ãĢĭ",
        "("
      ],
      [
        "éĥ½",
        "ä¼ļ"
      ],
      [
        "ä¿",
        "Ħ"
      ],
      [
        "è§ī",
        "å¾Ĺ"
      ],
      [
        "å¤ļ",
        "ç§į"
      ],
      [
        "çĴ",
        "ĥ"
      ],
      [
        "ä¼ģä¸ļ",
        "çļĦ"
      ],
      [
        "è¯",
        "¦"
      ],
      [
        "å¹²",
        "éĥ¨"
      ],
      [
        "æľī",
        "ä¸Ģ"
      ],
      [
        "è´Ń",
        "ä¹°"
      ],
      [
        "åħ¬",
        "å¸ĥ"
      ],
      [
        "è¯ģ",
        "åĪ¸"
      ],
      [
        "å·¥ä½ľ",
        "çļĦ"
      ],
      [
        "ç¿",
        "»"
      ],
      [
        "åģ",
        "ı"
      ],
      [
        "éĩį",
        "åºĨ"
      ],
      [
        "è®¤",
        "è¯Ĩ"
      ],
      [
        "æ¯ı",
        "ä¸ª"
      ],
      [
        "æĳ",
        "©"
      ],
      [
        "æĹł",
        "è®º"
      ],
      [
        "éĵģ",
        "è·¯"
      ],
      [
        "è®¤",
        "çľŁ"
      ],
      [
        "è¾",
        "ĳ"
      ],
      [
        "å¡",
        "«"
      ],
      [
        "æ°ĳ",
        "æĹı"
      ],
      [
        "ä¼",
        "į"
      ],
      [
        "æĶ¯",
        "ä»ĺ"
      ],
      [
        "å²Ĺ",
        "ä½į"
      ],
      [
        "åľ°",
        "äº§"
      ],
      [
        "æķ",
        "¬"
      ],
      [
        "çļĦ",
        "å½±åĵį"
      ],
      [
        "å¸",
        "Ŀ"
      ],
      [
        "åĩ",
        "¡"
      ],
      [
        "åĲ¸",
        "å¼ķ"
      ],
      [
        "ä¸Ń",
        "å°ı"
      ],
      [
        "åħ·",
        "å¤ĩ"
      ],
      [
        "æ¯ı",
        "å¤©"
      ],
      [
        "çļĦ",
        "è¯Ŀ"
      ],
      [
        "çĦ",
        "¦"
      ],
      [
        "åķĨ",
        "åĬ¡"
      ],
      [
        "i",
        "s"
      ],
      [
        "è¡",
        "¡"
      ],
      [
        "æ±Ł",
        "èĭı"
      ],
      [
        "æº",
        "¶"
      ],
      [
        "ä½į",
        "ç½®"
      ],
      [
        "è¾",
        "ħ"
      ],
      [
        "äºĭ",
        "ä»¶"
      ],
      [
        "åĲĦ",
        "åľ°"
      ],
      [
        "æµĭ",
        "è¯ķ"
      ],
      [
        "æĦŁ",
        "è§ī"
      ],
      [
        "å±ħ",
        "æ°ĳ"
      ],
      [
        "è¯´",
        "æĺİ"
      ],
      [
        "è½¦",
        "è¾Ĩ"
      ],
      [
        "å¦",
        "ĩ"
      ],
      [
        "æĪĲ",
        "åĳĺ"
      ],
      [
        "åĪĨ",
        "ä¸º"
      ],
      [
        "å¢",
        "¨"
      ],
      [
        "åĽĽ",
        "å·Ŀ"
      ],
      [
        "åįļ",
        "å£«"
      ],
      [
        "å®",
        "ĩ"
      ],
      [
        "çŃ",
        "¹"
      ],
      [
        "è½",
        "¨"
      ],
      [
        "åĶ",
        "¯"
      ],
      [
        "æľº",
        "åľº"
      ],
      [
        "é£Ł",
        "çī©"
      ],
      [
        "ä¸»",
        "ä¹ī"
      ],
      [
        "äº§åĵģ",
        "çļĦ"
      ],
      [
        "4",
        "5"
      ],
      [
        "ç»ĵ",
        "æĿŁ"
      ],
      [
        "å¼",
        "¹"
      ],
      [
        "å®ĥ",
        "ä»¬"
      ],
      [
        "åĲ",
        "´"
      ],
      [
        "åıį",
        "åºĶ"
      ],
      [
        "e",
        "t"
      ],
      [
        "è´Łè´£",
        "äºº"
      ],
      [
        "çªģ",
        "çł´"
      ],
      [
        "å¹¿",
        "å¤§"
      ],
      [
        "æĦŁ",
        "æŁĵ"
      ],
      [
        "ä¹Ł",
        "ä¼ļ"
      ],
      [
        "....",
        ".."
      ],
      [
        "çĽ",
        "Ĳ"
      ],
      [
        "å¹¿",
        "åĳĬ"
      ],
      [
        "èŀį",
        "åĲĪ"
      ],
      [
        "è±",
        "ª"
      ],
      [
        "éĢĲ",
        "æ¸Ĳ"
      ],
      [
        "ä¸Ģ",
        "ä¸ĭ"
      ],
      [
        "æľī",
        "äºĽ"
      ],
      [
        "æµĻ",
        "æ±Ł"
      ],
      [
        "ä¾Ŀ",
        "æ³ķ"
      ],
      [
        "éĢ",
        "Ĵ"
      ],
      [
        "ç§°",
        "ä¸º"
      ],
      [
        "20",
        "00"
      ],
      [
        "åĭ",
        "¤"
      ],
      [
        "è¯",
        "¸"
      ],
      [
        "åįı",
        "è®®"
      ],
      [
        "æķ",
        "ı"
      ],
      [
        "èĳĹ",
        "åĲį"
      ],
      [
        "çĲĨ",
        "è§£"
      ],
      [
        "âĢ",
        "ĺ"
      ],
      [
        "ä¹",
        "Ļ"
      ],
      [
        "ä¸ĭ",
        "çļĦ"
      ],
      [
        "ç²",
        "Ĵ"
      ],
      [
        "éĩį",
        "è§Ĩ"
      ],
      [
        "çİ»",
        "çĴĥ"
      ],
      [
        "ä¸Ģ",
        "å¹´"
      ],
      [
        "çĻ",
        "£"
      ],
      [
        "ä¾ĭ",
        "å¦Ĥ"
      ],
      [
        "è¶ĭ",
        "åĬ¿"
      ],
      [
        "å®ĥ",
        "çļĦ"
      ],
      [
        "èĢ",
        "³"
      ],
      [
        "æ¯",
        "«"
      ],
      [
        "ä¸ľ",
        "è¥¿"
      ],
      [
        "å¹´",
        "è½»"
      ],
      [
        "ä¸į",
        "åĪ°"
      ],
      [
        "ç»ı",
        "åİĨ"
      ],
      [
        "ç»ı",
        "å¸¸"
      ],
      [
        "o",
        "o"
      ],
      [
        "å·ŀ",
        "å¸Ĥ"
      ],
      [
        "æĲ",
        "º"
      ],
      [
        "æģ",
        "Ĵ"
      ],
      [
        "èį",
        "Ĳ"
      ],
      [
        "æĹ¥",
        "å¸¸"
      ],
      [
        "äº",
        "¡"
      ],
      [
        "åĺ",
        "ī"
      ],
      [
        "è´",
        "Ŀ"
      ],
      [
        "æĸ¹",
        "ä¾¿"
      ],
      [
        "äº¿",
        "ç¾İåħĥ"
      ],
      [
        "è°",
        "ĵ"
      ],
      [
        "ç»Ļ",
        "äºĪ"
      ],
      [
        "æĮ",
        "¯"
      ],
      [
        "éĢĤ",
        "åĲĪ"
      ],
      [
        "å¤§",
        "å¤ļ"
      ],
      [
        "æ³ķ",
        "éĻ¢"
      ],
      [
        "ç¬¬",
        "åĽĽ"
      ],
      [
        "æł·",
        "çļĦ"
      ],
      [
        "çīĽ",
        "çļ®"
      ],
      [
        "æĮĳ",
        "æĪĺ"
      ],
      [
        "å¤§",
        "éĩı"
      ],
      [
        "åıĮ",
        "æĸ¹"
      ],
      [
        "è·Ŀ",
        "ç¦»"
      ],
      [
        "çĽ¸",
        "ä¿¡"
      ],
      [
        "çĹĩ",
        "çĬ¶"
      ],
      [
        "å¤§",
        "ä¼ļ"
      ],
      [
        "è¯ģ",
        "æĺİ"
      ],
      [
        "æļ",
        "Ĥ"
      ],
      [
        "éĥ",
        "ĳ"
      ],
      [
        "å¤Ħ",
        "äºİ"
      ],
      [
        "åħ¬",
        "åĽŃ"
      ],
      [
        "æ¥",
        "ļ"
      ],
      [
        "æĸ¹éĿ¢",
        "çļĦ"
      ],
      [
        "3",
        "00"
      ],
      [
        "ç¤º",
        "èĮĥ"
      ],
      [
        "æ¯Ķ",
        "ä¾ĭ"
      ],
      [
        "åĪ",
        "Ĭ"
      ],
      [
        "ç«",
        "Ł"
      ],
      [
        "æİ¨",
        "åĩº"
      ],
      [
        "æ³",
        "ī"
      ],
      [
        "201",
        "3"
      ],
      [
        "çīĽçļ®",
        "çĻ£"
      ],
      [
        "èĥ",
        "¡"
      ],
      [
        "åıª",
        "è¦ģ"
      ],
      [
        "å½ĵ",
        "çĦ¶"
      ],
      [
        "è®¡ç®Ĺ",
        "æľº"
      ],
      [
        "æĥ",
        "¯"
      ],
      [
        "æī¿",
        "æĭħ"
      ],
      [
        "è¿",
        "¹"
      ],
      [
        "3",
        "6"
      ],
      [
        "å¿",
        "ĺ"
      ],
      [
        "åĿ",
        "Ľ"
      ],
      [
        "åıĬ",
        "åħ¶"
      ],
      [
        "çª",
        "Ĺ"
      ],
      [
        "åĪ",
        "·"
      ],
      [
        "--",
        "--"
      ],
      [
        "æ¶ī",
        "åıĬ"
      ],
      [
        "åĩ",
        "Ń"
      ],
      [
        "åħĪ",
        "çĶŁ"
      ],
      [
        "éĨ",
        "Ĵ"
      ],
      [
        "æľ",
        "Ĺ"
      ],
      [
        "å°",
        "Ĭ"
      ],
      [
        "ç´¯",
        "è®¡"
      ],
      [
        "ç¼",
        "´"
      ],
      [
        "äºº",
        "å£«"
      ],
      [
        "åĳĬ",
        "è¯ī"
      ],
      [
        "éĤ",
        "Ģ"
      ],
      [
        "åĮĸ",
        "å·¥"
      ],
      [
        "è®¤",
        "è¯ģ"
      ],
      [
        "åı¦",
        "ä¸Ģ"
      ],
      [
        "èĩª",
        "çĶ±"
      ],
      [
        "éĺ",
        "´"
      ],
      [
        "æľº",
        "åĻ¨"
      ],
      [
        "è´·",
        "æ¬¾"
      ],
      [
        "æ¦",
        "ľ"
      ],
      [
        "çĽ¸",
        "å½ĵ"
      ],
      [
        "çı",
        "ł"
      ],
      [
        "èĲ¥",
        "åħ»"
      ],
      [
        "éĿĴ",
        "å¹´"
      ],
      [
        "åŃ¦",
        "æľ¯"
      ],
      [
        "é¢",
        "ľ"
      ],
      [
        "åĩº",
        "çīĪ"
      ],
      [
        "åĪĽ",
        "ä½ľ"
      ],
      [
        "èİ",
        "±"
      ],
      [
        "201",
        "2"
      ],
      [
        "çĲĥ",
        "éĺŁ"
      ],
      [
        "æİĴ",
        "åĲį"
      ],
      [
        "ä¸",
        "¹"
      ],
      [
        "o",
        "m"
      ],
      [
        "æľĢ",
        "ä½³"
      ],
      [
        "èħ",
        "¾"
      ],
      [
        "ç",
        "ŀ"
      ],
      [
        "çĶµ",
        "åĬ¨"
      ],
      [
        "è®°",
        "å½ķ"
      ],
      [
        "æĪĲ",
        "äºĨ"
      ],
      [
        "èĢħ",
        "çļĦ"
      ],
      [
        "ç¯",
        "®"
      ],
      [
        "æ±¡",
        "æ°´"
      ],
      [
        "çŁ¥",
        "åĲį"
      ],
      [
        "æ®",
        "ĭ"
      ],
      [
        "åĢ¼",
        "å¾Ĺ"
      ],
      [
        "ä¹",
        "±"
      ],
      [
        "åŃ",
        "Ļ"
      ],
      [
        "è¿ĳ",
        "å¹´æĿ¥"
      ],
      [
        "è§Ĥ",
        "ä¼Ĺ"
      ],
      [
        "åįĹ",
        "çľģ"
      ],
      [
        "è¦Ĩ",
        "çĽĸ"
      ],
      [
        "åħ¬",
        "åĳĬ"
      ],
[...]
